1E
FC
0D
1A
04
02
F1
14
09
FD
F6
06
02
FF
FA
04
00
FC
02
00
0A
06
0E
FD
04
F5
06
01
02
01
01
FF
04
01
03
FD
FD
02
03
FE
FD
F7
FE
FC
02
F6
FF
FC
06
FF
03
FF
0C
04
03
1D
06
FC
FD
05
FE
FA
F0
04
FC
FD
FE
00
05
03
04
04
02
FA
05
02
02
F5
08
02
04
FA
09
00
02
FB
07
FF
02
FD
02
FD
02
FC
02
00
FE
00
00
FF
04
FA
01
02
04
02
F9
09
02
FD
FD
03
FC
FB
FF
02
FA
FF
01
01
FC
FA
FF
FF
FF
F9
FD
00
03
F8
FB
FF
04
F3
02
00
01
FD
01
FC
00
FE
01
00
02
FC
01
FF
FD
00
02
FE
FF
FE
01
FD
0E
F4
F8
0A
00
FB
01
01
01
F8
FC
06
FC
FF
FE
04
FC
01
FF
02
FD
00
FF
01
FE
F5
00
FD
03
F6
FE
00
04
FD
FF
FD
FD
FA
00
FE
01
02
01
00
03
FE
02
00
00
00
FE
FC
FE
FB
F7
11
FD
F6
FB
04
00
03
FE
FF
FD
06
FF
02
01
06
FD
00
FF
03
FF
FB
08
F9
02
00
FF
F5
01
01
03
F6
FE
FD
FE
00
FF
FF
05
FE
00
02
0A
02
FF
02
0B
01
FD
FD
0F
ED
FC
0A
00
06
03
03
05
00
03
FF
05
01
FE
FD
FF
0A
FE
FC
06
FE
03
F8
04
FA
03
FF
FE
E8
04
05
04
FF
FC
FC
02
03
FD
FB
FB
02
FE
FE
02
04
FC
FE
0C
FC
00
01
0B
F7
F6
0E
0C
01
00
0D
FA
04
02
FE
02
04
FF
00
05
0B
FD
01
01
F7
03
F7
FE
F3
03
00
00
01
00
FD
FA
FD
FF
FA
FC
02
FD
FE
03
01
FC
F9
07
05
FE
FF
0C
06
FD
0D
05
04
04
05
06
07
06
07
FF
FD
F7
FD
FE
09
FE
F9
05
02
F9
00
FC
F4
FF
FC
FE
00
06
00
F9
01
01
FE
FE
FB
FC
FF
FF
F3
FF
00
FE
F8
FF
01
02
FC
FC
05
07
FA
03
05
03
FF
FD
0C
FD
FF
FA
02
02
03
FC
F8
04
08
FC
00
00
FA
FD
04
F9
F8
00
00
06
FE
07
01
F5
FD
00
00
02
FF
FD
05
03
FB
02
04
05
09
00
00
FD
04
FD
FE
00
F6
01
08
04
05
FF
02
0A
FF
F7
08
06
08
03
02
02
09
FF
04
00
00
FF
02
03
F9
FE
01
00
FC
05
FE
F2
FC
FF
01
01
05
FE
04
05
01
FF
05
07
02
00
04
00
FE
F9
FC
0D
FE
00
06
FA
FD
FE
19
07
03
FB
FC
00
09
01
FE
02
FE
01
00
02
06
FF
FD
02
FF
01
01
F9
F8
01
FE
F6
05
FF
01
00
02
00
02
02
FF
00
03
08
04
02
05
00
FE
FE
03
01
03
00
02
1B
FA
FE
19
02
03
04
1B
02
04
FE
06
00
FF
01
03
FE
02
FE
01
F8
FF
FF
02
FA
04
FE
00
04
FD
04
02
01
04
01
02
0D
02
FF
07
02
03
FA
06
04
02
00
FD
17
FD
06
09
1A
F0
FA
17
1B
F0
FB
1C
01
01
FF
17
05
02
00
06
FA
04
00
02
07
03
00
07
09
08
02
02
0F
06
FE
07
10
00
02
05
09
FB
04
05
1C
FE
FD
0A
18
F3
F5
12
1D
FA
00
1A
