0d
1c
2c
ea
1d
27
1d
02
d5
fe
d1
1e
1b
09
cf
14
26
11
e0
10
fc
e2
d5
dc
cf
2c
22
d7
2d
12
0d
e8
d8
f7
d9
d8
29
02
22
28
e8
e0
1d
05
2a
e7
e5
29
31
d2
2e
e6
f9
f3
1f
1d
2e
f8
e1
ea
d5
f6
2c
01
0e
d9
21
f8
d4
03
ef
2f
2b
e5
f3
06
10
d7
13
15
e3
0e
19
07
2b
0d
f4
df
e4
02
0c
24
dd
e9
31
fc
25
1c
f1
2c
2a
e1
f1
0f
f2
11
d8
fe
21
06
0a
e6
fd
f0
f7
2a
10
0c
f6
fe
16
12
f5
e6
11
0a
1e
30
25
ed
db
23
22
d3
e9
e9
0c
2a
0a
da
18
01
fa
f2
f9
d3
f7
28
e3
e5
1c
fe
e1
e3
1b
d7
2d
28
ea
00
ef
dc
13
e8
da
ec
df
fd
0f
ce
19
f9
d3
d7
22
fb
ea
02
2c
dc
d8
f8
0f
ee
1f
f9
f7
0a
d4
de
ff
ec
29
1c
04
18
25
2c
da
ea
ff
05
da
24
df
01
df
0c
1f
19
1a
2e
21
0c
fa
fb
d9
db
1e
0e
e3
0b
f0
ea
26
12
21
d3
27
fa
d3
20
1d
04
1a
0d
fb
d5
e0
0e
d0
fd
f6
ef
d8
16
0f
03
09
ff
0b
18
e5
16
f1
d3
13
03
0e
f7
1c
eb
f8
21
23
de
0d
01
13
2e
ee
fe
07
09
f4
19
04
15
2e
1c
e4
28
d7
1c
1b
1e
00
de
fe
12
d1
20
12
e1
fa
d7
09
ed
0c
0b
2a
fa
f1
db
1f
ee
e7
0b
31
fc
23
06
fd
05
0d
fd
fe
1f
01
05
ea
1b
e6
10
12
27
02
25
0c
ce
24
2b
23
25
14
1f
d4
17
d6
0a
e9
23
07
0d
08
2e
09
f0
24
24
da
eb
ee
da
f4
10
11
26
1f
0e
eb
dd
28
07
24
05
df
ef
f6
f5
e2
21
e2
ce
f2
fd
d8
fc
21
0c
0e
f9
07
2b
da
e1
24
e8
08
26
25
f8
e7
11
00
cf
00
ff
2b
e6
0a
d8
1b
1f
d2
2e
db
04
d9
d4
fd
1c
0c
0b
2f
ec
f6
17
13
2f
0d
e4
db
14
19
23
dc
18
fe
dc
f6
2c
09
da
e4
fc
15
d3
0e
1e
09
28
e6
d7
03
d6
fe
1a
1f
fe
0d
fe
e5
05
f2
ff
0a
20
19
d0
fe
04
e9
ff
e1
dc
df
eb
f7
ec
02
2b
e7
fc
09
f4
f9
e0
fb
e7
f4
e7
29
d5
e9
23
db
d4
0b
06
ce
03
0c
10
f8
f1
ed
ee
e1
e4
07
1f
d8
0c
31
15
d3
f7
dc
0c
e5
31
d0
25
e5
05
e2
31
fd
22
31
f9
ea
d9
09
f0
f4
1c
11
03
f3
1f
08
f6
cf
0c
09
1e
31
09
13
07
ed
e9
d8
23
29
ef
0f
19
06
f5
17
14
f7
10
02
d4
04
0a
f6
e2
0e
0c
ea
d6
f8
1c
d5
d0
f6
17
ed
28
06
fd
0c
fc
f2
d6
2d
f5
00
30
db
ea
0d
16
24
d2
1d
0c
f1
31
de
21
0c
d1
f6
26
17
e3
d3
0b
d8
f8
ea
01
ce
08
22
fd
1a
2e
2f
d4
04
e0
f4
2f
26
05
11
d5
e1
db
f8
10
26
fa
1f
0e
fa
ce
16
e1
0b
2c
f0
df
1c
26
eb
ed
df
26
07
fb
d3
f2
16
01
fa
2f
f9
dd
ec
d2
e1
e7
24
2b
dd
1a
ff
16
d2
e2
1c
fc
cf
e9
01
31
23
f3
