e6
f2
21
e2
f1
1d
d6
11
0b
15
1b
16
f2
ee
2f
d5
e9
f6
24
e0
e1
05
ef
13
04
10
0a
15
d4
18
12
1c
1c
1f
08
11
1f
d4
e4
ce
1f
f2
eb
17
2e
2a
0f
1d
08
28
ee
f1
27
e9
fd
ea
2e
eb
e7
0b
25
db
21
22
db
1e
31
15
01
e4
2d
fc
27
e8
f3
d0
da
0f
d6
24
21
e3
f5
e2
2d
05
20
dc
22
cf
f5
ed
1b
f8
df
fc
e7
f8
f5
27
f4
00
0d
2d
ef
1d
0e
0e
03
0d
12
07
16
f4
d9
f4
da
f9
f7
fa
ec
2b
e5
12
1e
27
d2
d0
d6
fe
ef
d4
db
f4
e1
00
f8
2e
eb
f7
d8
ec
eb
2b
0e
19
24
f8
f4
11
20
cf
e6
e8
20
21
21
06
2f
1b
27
2e
1c
0c
10
2d
d1
d9
27
20
d4
e0
db
e4
0d
dc
23
ea
ef
d4
e4
2c
f0
31
d5
24
ff
03
e6
f4
2d
1e
d4
0c
ec
f6
28
2a
1f
d9
f9
30
02
dc
dd
da
ee
30
cf
e2
17
31
31
e9
0d
17
10
29
0c
e3
1b
f8
1f
fb
20
fd
1d
27
26
dd
f5
1e
db
1b
eb
e4
eb
ea
08
f6
d4
f9
f9
00
fa
10
09
d5
0f
1b
fe
07
fa
20
11
d9
df
de
e0
f0
fa
dd
eb
dc
1b
09
04
d6
e9
13
07
26
19
f5
06
30
e8
e2
0b
df
db
dc
1c
e9
fa
27
da
18
03
d6
09
d4
10
de
0e
1b
1f
e7
fd
dd
d6
f8
e1
05
d6
06
fe
f9
ee
1e
d9
11
dc
f2
18
26
e7
f0
1e
31
dd
f7
0a
e5
d6
1f
d1
24
1f
2f
12
e0
e1
f6
0f
2f
13
1e
dc
db
de
e7
28
23
df
19
00
23
20
d4
13
2a
d2
dd
20
f0
04
f2
0b
29
31
ec
e5
f6
cf
1a
2f
f0
15
f1
18
28
ed
eb
fb
25
e2
23
d3
22
f1
11
d5
d1
01
dc
d8
f2
0b
16
19
2b
d5
eb
d1
31
d4
05
10
da
f6
1c
ff
f9
d3
e4
30
2d
03
dc
12
e9
f9
e9
f8
fd
d9
19
e7
df
18
d8
0d
06
27
0e
2f
e7
2b
0a
fc
2f
08
05
e0
00
0a
d6
f7
0d
ee
fb
14
0e
12
26
db
fa
08
e4
1c
fd
0d
29
fe
20
08
f5
d7
01
05
eb
24
2b
2b
21
0e
14
27
f6
10
1f
0c
11
13
20
20
f8
f9
09
12
01
23
e7
01
25
d2
0b
0c
1a
13
00
d3
04
dc
f0
1d
d9
14
ea
0b
02
fd
fa
0f
e7
10
cf
f3
0d
07
d0
ff
e1
06
e7
f7
18
08
30
e4
07
e4
d6
f1
d4
13
24
10
05
fe
ea
27
1d
09
30
2a
d1
ed
13
e5
0d
2d
15
dc
06
cf
e7
0e
e4
06
1e
2a
0d
2e
2b
31
26
18
e9
d5
f4
00
0c
d3
fa
31
07
06
1b
22
1e
d6
0e
21
fe
30
2a
06
06
1c
fa
f0
d4
10
28
ed
ee
f7
24
02
ef
10
04
24
f7
17
e1
e1
2a
ff
d2
f2
09
13
27
ee
d3
d1
1a
ec
1f
2c
21
30
02
ff
f7
11
ff
fa
27
fe
17
14
21
f3
ec
dc
eb
ee
e8
d9
28
db
ec
f6
1f
1c
06
d6
fd
db
da
dd
07
2f
25
31
d4
f2
2f
14
fd
0f
f2
23
ec
2e
e2
06
00
11
ce
31
e3
03
f2
f3
f1
16
d5
de
dd
f5
ea
