04
13
ed
06
f7
0a
f9
0d
e7
1d
de
ee
da
f6
d2
e1
e8
dd
d7
28
03
08
f1
21
ed
e4
24
20
14
0e
1f
11
2c
f0
f6
0b
13
25
d4
2a
17
eb
05
31
ff
d9
ff
f2
df
2f
25
30
eb
e1
2c
19
16
d5
19
d3
fa
05
27
31
06
24
15
fa
2d
e3
d1
d4
e9
f2
29
d3
19
f3
16
e3
e5
0c
f0
d3
cf
1b
e2
f9
2d
26
0e
23
25
fe
14
d2
2b
28
25
22
da
d1
31
21
dc
06
f4
1d
f7
2f
ff
10
24
0c
30
17
d8
11
ce
13
28
2a
1c
ec
01
f2
1c
0b
d6
f0
db
03
dd
17
db
21
ff
2f
df
1f
16
0a
1f
df
31
f5
db
d6
17
e7
df
1d
0d
dc
31
e0
00
e6
19
2e
dc
d7
d9
e1
da
05
2a
e9
d9
17
eb
13
18
01
29
2f
fe
19
d2
1a
1c
2c
2b
07
30
04
28
e6
2d
e4
01
dd
eb
da
04
d1
03
dc
f0
1c
0a
16
07
04
e9
d9
0e
dc
25
de
ce
db
e6
e2
1d
ce
f6
dd
0f
22
d2
e7
ed
04
ff
1e
16
eb
1a
1e
05
1f
d0
0d
fc
0a
03
0d
d3
ec
d6
fe
22
31
2a
1b
11
df
07
24
1c
13
00
ef
e9
0f
d7
f6
e1
d7
1a
d5
15
24
e7
08
16
ce
06
f2
16
04
24
19
27
0b
02
07
d4
24
12
db
e1
e8
2c
11
d0
d2
e8
2b
0d
17
d5
ed
dc
f0
ed
25
00
19
fc
21
ec
e8
e2
ec
f4
2d
db
09
e9
06
2e
e2
ef
03
2c
31
df
e1
2a
e6
db
d0
e3
f9
22
01
2a
27
de
de
03
2c
05
d7
04
26
e9
17
d3
00
22
06
2c
ff
23
fb
f8
22
e0
f2
d1
d4
00
2b
f6
31
df
2b
f0
29
d9
2b
2f
e4
15
2e
09
f1
ff
30
ed
e1
20
10
d4
e5
f6
16
10
d8
20
0f
d7
1c
f4
de
15
2b
d0
04
1a
16
e6
f6
e8
22
dc
e4
e0
e5
26
08
14
da
ee
2a
0f
20
f6
20
fc
20
e3
d8
cf
f4
06
e4
03
e9
e3
1e
e4
f8
1f
30
0a
d1
0a
18
ee
28
f0
2c
e6
ed
d5
21
d6
ef
0e
1f
14
f2
e2
da
2f
14
11
fb
08
e3
1d
f0
e0
02
23
f3
0e
00
0b
22
f9
0f
02
d2
fd
2d
fc
31
05
e5
08
02
dc
fc
f8
17
02
db
2f
2b
d6
27
17
1b
2a
d4
dc
f2
d9
20
de
e5
f7
17
f9
f6
02
f4
f9
28
f3
0a
29
31
15
1b
e3
0f
eb
08
0f
da
07
ec
fb
1c
19
d4
2f
cf
01
22
d3
15
2b
fe
ce
ef
e6
2b
f1
23
f6
d2
f1
fb
f8
da
e1
12
13
29
dd
09
dc
01
e7
17
f2
d5
16
0a
26
cf
1f
d3
1a
e8
26
0c
0f
12
e0
eb
05
2d
1d
10
1e
d4
d7
19
f1
da
22
db
e7
31
d0
13
02
2b
06
db
01
d0
0c
03
fc
e2
e8
da
cf
1e
1b
2c
23
e7
f0
07
e6
f1
24
10
2a
df
17
f0
10
28
f2
0a
e2
1a
11
d5
22
09
f2
d6
17
ff
2e
1a
06
d3
26
e3
e1
04
1a
30
13
da
da
dd
d9
d2
28
fc
f0
d6
0c
2d
fa
f9
eb
1a
18
0c
ee
d2
08
df
ea
1b
d1
0f
1d
1f
d3
cf
f5
31
18
f1
fd
f3
0a
d5
0c
dd
