17
ef
df
f6
ef
cf
e0
d4
fc
db
1b
e7
19
12
d7
0f
db
1b
02
e9
cf
de
e5
e6
cf
f4
d0
e7
ea
04
f1
ea
22
24
23
0c
d6
04
f5
db
2c
1f
da
f0
2f
01
25
2a
d9
04
1f
00
d2
04
2d
f9
22
e0
ec
e2
d3
e7
fa
1e
ef
18
fb
31
0c
f7
06
08
17
0d
02
fa
20
ce
f1
0f
10
fb
d7
0a
ec
e4
e1
2f
d6
e9
0b
d0
04
d4
e4
07
2a
1e
2d
de
04
2b
d9
d6
0a
f0
10
d1
f3
f8
de
16
2f
08
29
0a
d9
2e
0e
f6
e2
2e
ec
12
ee
f3
23
25
12
01
d3
e5
17
05
2e
01
14
02
d2
d1
07
f0
16
31
e8
02
eb
df
e4
06
19
d8
dc
11
f5
e3
19
e1
20
d6
d2
e2
02
24
2e
e7
1f
03
2f
f5
18
10
f9
ce
24
12
e8
19
1d
18
ef
f5
e4
e6
1f
13
10
d6
d6
21
1a
df
18
d4
0c
d9
20
13
27
df
0b
24
21
0d
f7
03
2d
fc
d5
f9
00
00
fa
f5
e7
f5
01
e0
1b
de
d7
cf
1d
2d
1f
26
07
1c
15
15
00
e1
fd
e3
fe
d0
19
f6
07
da
e6
e1
f3
06
2c
03
e4
0b
d8
25
08
22
fc
24
22
d8
e3
de
ef
01
e3
d9
01
f9
d3
01
ff
0f
1c
28
21
ea
04
30
24
d4
31
26
fa
de
ed
0e
25
da
16
fc
f6
e1
23
d3
dd
0b
06
12
0d
d9
f8
f2
31
f0
29
e6
2a
0d
1e
e0
02
ed
ee
da
23
1c
0f
fe
ff
dc
0c
08
2b
e8
25
ea
24
e5
d8
d4
17
15
02
ec
ce
e6
e4
05
f2
08
fe
e4
f8
25
2c
06
12
f7
2c
ed
f5
f5
e9
25
26
1f
23
11
05
f4
13
02
e1
f0
18
f8
07
e0
d9
ff
1f
11
10
16
04
01
0c
d7
00
f1
f8
f0
d5
d5
03
db
d0
ee
ef
ff
cf
25
e2
22
e8
d8
0d
30
20
07
29
e6
f5
0e
cf
e1
f5
ee
ea
f4
e0
dd
16
0c
2d
f1
14
16
dd
f9
11
e5
f4
03
1f
f6
e6
07
d9
d0
12
fb
0f
18
22
f0
08
28
30
13
18
27
d9
20
f7
ec
df
f6
e2
2a
d4
12
14
ee
28
19
2f
1c
2d
db
0b
26
f3
e2
20
f0
0a
25
df
26
ee
13
fe
05
e3
26
1d
28
20
24
22
2f
ee
f3
fd
ee
de
01
fa
20
d3
00
23
17
0c
dd
1f
fa
fb
d6
09
ea
18
dc
19
2c
29
f5
f5
eb
e0
24
31
14
1b
06
d8
d2
e3
d2
e7
db
de
0f
f2
1e
f1
ee
d8
fa
1d
1e
18
05
d2
f3
0c
1a
00
0b
05
e6
25
2e
fe
e3
fc
de
df
0f
e3
31
d4
f2
19
f4
2d
f5
ce
23
e1
cf
0d
de
25
05
e1
21
1b
d0
ff
d0
f7
ee
03
12
28
d5
00
1f
e9
1d
25
f0
2c
1b
d7
de
f0
0b
0b
15
f7
18
18
d2
00
22
17
27
eb
2b
fb
11
fc
2f
2e
da
28
1b
10
f5
fb
26
f8
0d
08
12
24
11
d8
f2
0e
14
de
d0
e5
11
eb
dd
dc
d1
cf
09
d4
23
28
15
16
05
15
2b
dc
d0
1a
ce
d9
ea
f6
1a
dd
24
0c
d4
d2
08
e7
22
eb
f3
0c
00
30
e3
d0
1b
25
2a
18
d5
f0
02
25
de
d8
d7
27
27
18
d6
