2a
0d
2e
ee
12
22
cf
2a
e2
dd
23
0c
03
ec
0c
09
00
f9
fb
2f
2d
24
0f
25
21
d8
fd
26
ec
fc
15
2a
29
e4
0e
17
e7
0b
dc
f3
13
0a
1a
11
fc
ec
00
e4
06
d2
d4
e0
2d
f1
e2
ec
d0
09
22
e0
15
2a
0b
d2
d6
06
1f
08
20
16
0d
d2
19
e9
24
ef
d1
25
2d
fd
f6
d6
e4
1c
d3
2a
30
d3
11
d5
0c
0e
31
fd
d7
00
12
22
26
f7
1a
11
22
dc
d6
05
15
16
19
fe
f2
05
f1
d2
2d
0b
ce
df
d6
24
e1
d1
ef
f6
2b
25
fd
0a
2a
d6
e4
1c
ef
15
ef
0e
f0
0b
0c
f1
17
f8
31
23
d1
fc
eb
05
0f
24
1e
22
e2
2d
dc
0e
26
27
24
d2
e9
22
ff
e8
f2
dc
d8
2f
e3
db
09
2b
01
ef
1c
08
f5
f7
eb
1d
1c
d1
2f
18
24
db
de
f1
ff
15
f3
d2
29
fe
03
d9
db
06
f5
eb
d1
f4
ec
cf
0e
f5
06
14
eb
23
2b
2a
e2
0b
db
cf
fa
16
14
25
de
f4
f0
03
e6
0b
1f
fb
f5
00
ec
21
e0
ce
d9
0f
14
1a
f2
1e
e2
11
f9
26
00
00
25
04
24
f4
f6
f1
16
e1
e6
e1
d8
1b
d6
01
d5
17
d3
d0
19
1b
eb
2d
04
17
2b
0f
25
ce
08
f0
d3
2d
da
f0
d6
ed
15
2b
1c
1c
f5
08
07
0b
14
ef
30
d8
ea
eb
2f
db
04
f5
07
14
1c
29
de
2d
0e
d3
f5
28
07
2b
14
29
2f
f1
0b
00
ed
1d
ec
1c
13
30
f1
d0
d3
cf
d9
25
1e
da
df
2b
24
2b
28
d7
2e
f7
cf
e8
1f
de
05
d9
0f
f6
21
09
d9
f3
02
e0
de
dc
e7
f3
e6
ce
ea
2a
04
16
14
1c
f7
09
30
31
f7
dd
0a
08
0d
ff
f7
ee
16
2f
10
d7
15
15
31
0d
2a
d5
1c
28
19
ed
0e
ce
f8
e2
d4
27
e5
ed
29
02
1d
20
1c
d7
06
2f
fc
10
1d
fa
27
0f
2a
d2
f3
16
f3
fd
e9
28
f7
22
d4
00
e7
0c
26
30
23
ec
fe
d7
dc
12
1c
31
13
0a
24
e1
eb
ef
ec
ed
fa
da
ce
ef
ec
10
24
da
e0
d1
11
00
23
e0
f1
29
1a
e0
d2
0e
e3
d8
e9
fa
d1
df
1c
2e
d4
02
31
0c
06
0e
1f
01
e1
ed
ee
ed
0e
f9
31
31
f1
ef
06
1d
dc
17
d1
ea
2b
09
e7
e5
d6
e2
e6
2f
d6
ce
2b
f7
ec
ff
de
0d
de
17
26
0d
fe
e9
d8
02
e4
fa
17
1f
21
fe
1b
04
00
1f
f5
d2
20
db
f8
2a
1b
24
00
26
f4
1b
d2
cf
f7
25
19
d5
10
e5
17
1c
d1
21
d2
30
0f
f5
2c
2a
ce
2b
04
1c
1e
ea
1e
fa
19
12
26
ff
fc
fe
18
11
0c
2b
1d
d8
22
f6
e4
d0
d1
ef
f7
05
f3
e8
df
d4
fa
01
2a
28
e5
d2
06
17
fb
0c
ee
0f
1b
0f
de
cf
d0
ff
10
0d
19
df
ea
29
fc
d3
e0
06
ea
f4
09
02
0b
d8
f3
d2
25
d5
09
16
02
21
0c
2b
d5
fd
17
f6
02
0e
00
1c
04
e1
d7
1b
0a
e7
db
0f
ff
fe
fe
21
24
fa
dc
08
d6
0b
ed
de
05
09
fd
2b
db
29
23
14
28
ef
