e4
13
24
31
e9
1c
28
27
da
df
18
0b
1f
0a
16
31
f4
d2
19
d8
f8
31
d9
18
e1
d1
f1
d4
e7
df
e5
23
1a
f6
e3
ce
ef
ff
0d
f8
fe
f6
24
19
04
ff
d4
30
2a
2a
14
2d
fa
db
f2
f2
f3
dc
ff
e5
e7
30
fd
ce
dd
16
d8
e0
2a
da
db
0a
27
1d
fd
2c
e3
23
2b
0d
dc
00
e6
ea
2f
01
28
ff
d7
15
fe
e0
e0
12
14
11
fe
fb
06
1d
f2
31
fe
21
d9
23
f7
13
2c
e4
f1
10
ff
ec
db
cf
cf
e0
fc
fb
1a
f6
d9
31
0c
00
d1
28
d9
f8
e2
0a
f4
20
06
f6
fc
ce
f2
20
15
ec
03
04
fc
f4
11
e9
09
d2
e7
2b
f2
ec
19
d9
d3
18
2d
ef
f2
0d
fa
1c
2b
fe
fe
28
f2
2b
1c
2c
f9
2c
11
29
da
ed
15
2b
26
e3
00
fa
ee
04
17
27
26
ff
e1
e9
e9
01
0a
26
1c
14
18
d2
f9
2e
2d
e1
df
25
2d
d3
17
2e
dc
0b
2b
fa
e6
19
1b
db
f5
05
e7
19
f8
05
ec
f8
e8
d6
eb
d9
1c
da
d8
fd
d5
0b
23
fe
15
df
d4
fd
df
24
d9
29
fe
f4
dc
f2
e8
e5
f2
fb
fd
2d
fb
0a
d6
1d
31
f9
10
0f
e4
0b
f5
de
31
22
13
e2
de
ec
21
d4
e3
04
1f
fc
ea
0b
1f
e5
21
e0
e0
f5
f3
dc
e9
f4
d2
f4
00
f5
0f
e8
f8
24
e7
18
2d
db
13
10
11
ed
0e
18
26
27
dd
2c
0b
06
e9
10
ef
0c
22
2b
cf
2c
fc
f6
14
03
0c
24
31
1d
db
ec
10
0b
2f
0d
d1
18
e2
05
d4
fd
eb
f1
fe
ea
fc
1c
02
eb
00
2f
e4
0b
ec
06
f6
13
15
fd
cf
24
18
f0
03
2e
f2
f7
d2
0f
11
fb
31
16
1d
db
e6
2c
2b
1d
2c
f5
f9
ed
01
24
e8
0b
25
d6
de
03
17
da
f8
e2
da
2c
ed
2f
25
23
eb
00
07
e0
10
ce
2f
2d
05
19
fe
1a
e5
e5
23
dc
24
08
d5
ea
17
ef
23
e0
08
d3
14
07
ff
21
d8
f9
21
fc
ff
28
eb
d2
da
f6
20
d5
31
11
1f
1e
d6
29
1e
12
2a
22
fd
ee
f8
f5
ce
31
2d
0b
ce
fe
1a
f1
e4
dd
10
0d
1e
f0
ce
ce
dd
d2
1e
ed
e4
ed
16
d7
f5
e6
11
ee
e1
11
16
ec
1f
f4
01
d6
0c
d9
d6
db
d9
2f
15
02
eb
26
18
2e
03
04
f9
ed
2c
19
e6
19
24
d7
d4
03
07
ea
2b
f2
cf
df
f5
29
08
eb
22
09
cf
f7
ee
f1
df
2e
0b
e1
09
fd
ee
1e
21
e9
24
cf
e7
e0
0a
01
31
e1
d8
14
26
07
17
15
de
f0
d9
d1
25
d5
2a
2b
e5
2d
eb
ed
11
30
1d
10
1d
f6
25
ff
0d
15
28
d1
d2
f4
21
2e
10
d7
ee
28
06
f8
ef
e4
fe
1e
e5
20
e1
21
ed
0f
02
03
ec
f0
15
2e
1c
d4
d9
20
da
08
10
01
ee
24
e7
f6
25
03
d9
02
12
09
e4
d8
12
1c
eb
fd
e8
db
fc
dd
19
fd
ee
25
03
12
dd
e7
1f
d5
d6
d0
f9
df
d2
fa
29
2a
17
fc
ef
f5
f7
eb
cf
10
e7
06
d5
eb
ea
f8
e2
e6
1a
11
0c
10
