da
d1
04
ff
e6
d8
e7
24
2f
18
ea
e7
ea
dd
d2
1d
fc
d3
d0
1b
14
16
2b
06
04
06
10
0e
de
d8
e8
11
22
e2
16
1d
f0
fb
fa
ec
0e
df
22
02
13
11
fa
e4
08
e2
d6
d7
e5
e7
0b
dc
2d
15
0d
ea
2e
2c
e1
03
2b
11
02
08
26
1e
15
0f
d4
2b
e9
2a
15
da
07
31
2f
ed
28
2a
da
0b
f1
04
e8
28
e5
f0
cf
fc
19
1f
22
ce
09
28
12
17
dc
06
f6
1d
0d
2b
ce
21
d9
05
eb
f0
d4
26
f6
d0
ee
2c
d7
f9
23
f0
fc
f3
e0
16
0f
da
e3
e9
29
d2
00
2b
d9
0d
20
23
09
1b
28
1c
27
e3
12
1d
f1
df
29
28
f6
ce
de
eb
14
ef
dd
2c
d6
05
2e
f1
11
1a
fc
f9
28
ee
f2
f3
de
fd
28
ee
1e
0d
d0
29
db
de
e4
0c
eb
e2
ee
27
22
17
26
2c
d0
e6
10
05
d4
f9
20
d5
ff
13
12
13
fb
e5
24
03
05
de
1a
d8
fb
30
0a
1d
e1
e6
09
e5
dc
2d
0b
da
f0
25
25
0b
16
14
16
01
f9
fa
e4
00
f2
19
2a
2f
eb
d2
dc
1e
d9
01
2f
05
14
f9
0d
07
28
2c
ee
10
02
ed
09
03
d0
27
27
0e
28
2f
25
de
e5
d1
0b
2f
f4
d1
0b
17
06
d0
ce
f7
26
26
e3
f5
26
2f
07
0d
08
fe
fd
fa
df
1a
20
29
1c
04
fd
1c
2f
2e
26
18
06
29
d2
e4
17
db
07
d8
f7
f7
fd
22
27
01
f2
17
d4
fc
31
04
fb
21
ef
2c
fb
0a
19
11
14
da
dc
f7
f4
11
05
1d
0d
e9
08
ed
d4
07
2c
db
ed
2c
2b
21
e4
e4
ed
11
d5
15
fd
ce
da
27
f2
26
d2
15
f8
1a
f5
15
30
04
e1
25
f5
d8
e6
fe
0b
22
cf
0e
eb
21
10
e2
2b
1e
08
fc
d2
02
26
1a
0b
04
2b
20
f0
d0
05
d9
1b
e1
e0
0d
ce
f6
fd
12
f1
f8
d8
f3
ef
10
18
e4
fa
16
d4
11
2d
d2
03
db
25
ee
d1
e6
e8
e7
29
cf
fb
2f
18
21
17
18
f5
d3
d0
fc
0e
d4
e9
f5
27
1a
2a
21
00
06
e3
dc
df
12
fb
19
22
e2
d5
d8
2d
31
16
ef
04
f7
dc
0c
0e
fc
1f
08
d8
0d
26
f3
e9
ec
21
e0
22
ec
d4
14
ee
06
29
05
1f
ff
2d
09
07
fb
27
26
0d
1c
e3
01
fd
20
d6
dd
21
31
e6
dc
2b
e6
2c
f5
0b
12
f3
2c
da
fa
db
f1
ea
30
05
13
12
e1
1c
d7
12
fa
de
de
1d
14
ee
19
d7
e0
ec
db
d4
df
05
22
1d
1b
e7
f8
e9
30
00
2a
16
ed
19
15
e5
fd
d2
d9
f1
e5
d0
d1
1e
2b
ef
31
ff
de
d8
ff
cf
29
0f
fb
27
dd
fb
ed
e3
ef
d5
f4
de
14
2f
03
17
09
eb
29
d1
31
f4
1d
12
0c
0c
e7
f7
06
eb
22
f9
fe
2d
0b
e6
d3
0d
22
0e
06
fd
24
23
ee
28
1e
0d
0b
06
06
e6
e5
e2
f1
0f
07
f5
0f
e8
1b
e0
d9
ce
da
02
f1
10
e7
0b
27
d4
0e
02
ff
e8
08
31
ed
e5
20
d5
26
11
da
29
0e
26
30
fa
dc
d8
dd
ff
2b
06
fa
01
dd
