2d
2a
d3
dd
10
e5
11
12
f3
30
ef
eb
27
de
16
1f
de
0e
e9
d7
29
da
f6
09
fe
f4
f3
17
e0
29
2c
31
ef
00
03
1f
da
0d
28
05
e5
19
02
0c
16
17
1d
ff
d4
22
10
09
df
ce
27
fd
2f
13
ce
f2
0f
e2
e7
e4
eb
01
fd
2b
29
0f
2f
ff
ed
ea
06
30
30
14
f2
08
12
02
dc
da
18
00
0b
14
2b
1e
16
16
dc
26
2a
1c
e7
db
07
e3
f0
17
09
d8
2f
30
fe
f4
0e
29
1c
05
0c
ef
04
e5
da
31
19
17
27
f5
f1
00
ed
0b
dc
17
26
d2
2d
23
d6
ef
02
0d
f5
ec
23
dd
e6
22
2f
0a
e1
fe
d2
07
1f
e6
30
0d
de
1d
d9
23
d7
cf
06
17
1d
d6
03
ff
1e
21
0f
14
26
dd
1b
23
e9
01
cf
f3
f2
31
dd
ff
fa
f1
f3
10
f6
e0
1a
23
d5
06
09
e9
f1
0a
15
1a
d6
fe
e3
10
ee
dd
f1
2b
ea
f2
f6
de
e6
02
fd
ce
17
10
d3
e1
cf
e2
f2
db
29
19
1b
0f
1d
2c
e1
de
f3
24
fb
fc
27
ff
1f
1f
16
0f
0d
f0
f5
e2
fc
d7
29
0c
08
05
2f
e6
0e
d7
e3
e7
17
db
07
31
f8
1b
03
e8
cf
17
1e
1c
1f
04
1e
fb
0d
d5
07
06
e9
00
d8
fe
ff
23
e8
2f
22
ef
df
07
fe
e9
10
f7
00
00
01
0c
1c
db
09
dc
ec
0f
e8
18
ea
08
e0
ea
df
d7
d7
1d
f1
19
17
d0
f4
d3
df
ec
e9
d1
09
dd
1f
f4
08
e6
28
2a
2c
f7
f9
d4
0c
05
f6
d2
05
2b
08
1d
e8
15
2d
f4
13
dd
e2
1b
28
fb
d3
fb
10
cf
ec
de
e0
f2
ec
12
fb
29
d0
e2
00
f7
d7
2c
0f
d5
25
d9
f1
e5
ed
ea
df
04
03
dc
0b
d3
10
1c
26
f0
00
dd
01
2e
24
2c
fb
e4
f6
cf
db
d6
09
ff
ec
e4
0c
ee
08
1f
05
25
f8
dc
18
20
0e
ee
25
02
2c
e4
fc
0a
06
26
30
27
04
1f
ef
05
cf
d1
ce
dd
31
dd
f9
20
dd
10
2b
dd
31
e9
02
07
27
d9
11
f9
d9
d5
dc
f7
0e
dc
18
f2
ef
dd
f3
e4
06
d1
ef
f9
0a
d9
ec
f4
fa
27
00
d5
03
13
17
27
2f
1c
1e
2e
2d
fd
2d
2f
fa
ee
2e
1c
22
01
d8
14
30
de
e9
ed
f2
2b
16
dc
f9
0c
0b
d9
0b
ff
29
e1
e7
e5
f7
17
dd
f5
06
28
ef
0d
df
ed
2a
d2
27
2a
d3
27
11
ff
2c
d0
dc
e5
ef
06
d5
fb
de
14
f1
f2
06
22
07
f6
f0
14
d8
ef
fe
23
f0
ff
15
11
fe
01
21
f2
d6
fd
0b
06
d1
0b
d9
09
e4
fe
ed
27
ec
e4
2a
1f
26
24
dc
2a
df
08
f9
20
ef
02
2d
28
03
1d
1d
f0
de
f5
e7
e7
0d
15
d5
25
01
00
01
f8
2d
e1
13
f8
d7
0b
29
15
2f
eb
f0
03
19
e1
08
0a
01
10
f2
dd
01
2e
18
2e
1c
05
0d
15
21
2c
1e
29
26
30
25
28
eb
df
10
07
f9
d1
fe
f9
d2
12
0a
2d
f0
d8
04
1b
f8
d6
da
0e
fb
f9
d4
f3
2c
12
f1
f3
d5
18
00
22
2b
e5
1b
e5
2b
20
