21
db
01
18
24
d6
11
24
2d
12
cf
f4
f8
24
ce
28
f3
df
ea
f9
e2
da
2d
e0
cf
d0
01
31
ea
1f
d1
d7
02
01
21
f3
2a
04
24
09
1e
07
cf
31
f3
f4
1d
2d
19
d8
d4
f0
1c
ea
ea
d1
f9
06
db
de
e0
e9
2c
2c
16
ef
da
de
f5
0f
ee
17
2f
de
1a
d1
e9
dc
f6
e0
f0
30
db
f6
08
29
01
f2
2a
10
0d
23
05
16
e4
fc
f7
e0
d6
e5
d7
de
fc
0a
d2
2b
12
fb
ed
ea
14
1e
1d
ec
dd
0f
0c
f7
e4
05
01
16
da
cf
0a
06
1f
00
2d
12
00
26
d2
19
e4
1e
1a
07
de
11
f6
17
dd
f7
e1
07
f5
e6
d8
12
da
29
04
0c
1a
d3
2b
00
df
2d
e2
1e
0e
e4
dc
15
15
e1
07
22
03
0b
f1
23
da
ed
00
e9
de
17
ec
1b
28
1f
ce
1d
1f
fe
f0
e1
f0
e3
fd
0d
d7
17
28
30
fa
0b
ce
fc
f6
14
29
ed
1f
0c
07
f6
17
d4
e1
1c
10
24
20
19
27
11
1c
0e
0c
16
23
13
2e
05
f0
f1
ec
db
f0
17
21
f9
e5
f2
d5
05
f8
d9
d1
18
0c
f3
2e
e6
da
e5
14
19
ea
16
de
e3
f2
31
11
ee
1f
ff
1b
e1
0b
2e
10
fd
e3
ce
03
f9
ce
28
dd
ed
ef
0f
de
0b
fb
0d
fc
13
fe
ec
17
f2
da
2c
ee
dc
09
e7
d0
18
d6
e9
dc
d2
19
17
12
24
f1
0f
0d
0a
23
16
eb
25
2e
19
31
27
f1
30
f4
e0
25
24
17
06
e5
f4
f4
fb
02
d1
ef
13
2d
f9
31
12
08
1b
2d
0d
0a
05
fc
e5
ea
0a
23
0f
ea
d8
ee
1e
06
da
ec
05
2f
27
00
d4
2b
24
f4
20
15
d0
e5
13
04
0f
ef
00
e6
22
0a
1c
e9
06
30
17
d3
d4
ec
e1
d6
dd
f0
02
f9
df
cf
db
1b
03
cf
13
1c
16
d3
2a
00
03
00
d5
f1
cf
2c
2b
20
f4
d5
2b
2a
de
e7
27
e0
eb
d6
d0
18
d2
d4
eb
e3
1a
d7
2f
08
da
0a
2b
15
d7
f6
1a
09
0a
18
21
26
30
23
26
db
0b
06
f6
f5
db
e0
02
05
0c
ec
05
ef
03
0a
07
0c
e8
27
21
13
1e
d5
f5
16
f1
1c
18
07
f7
f6
d3
03
e9
d5
13
f5
26
2a
e1
f4
e4
0f
0a
2b
18
2a
24
e0
f1
26
05
d2
0e
07
d8
12
01
21
0e
f9
09
2a
db
2f
18
0b
00
21
e4
28
1e
1f
29
fb
03
1d
26
ed
25
e2
27
0b
d6
f5
f7
13
f1
11
08
d2
14
20
1d
df
fd
f8
15
09
20
f7
db
ee
22
ce
cf
e9
d8
e2
1b
15
24
f5
d1
31
2c
13
fa
e1
f6
18
1a
04
d6
0e
1a
f2
da
dc
db
f6
30
1d
cf
f6
e5
22
13
2a
ea
e7
07
dc
26
05
2e
d6
e5
d7
f3
00
f1
e7
07
23
ea
19
2c
fb
13
1d
07
f8
1b
16
f8
2c
09
20
07
e8
e7
e5
01
19
07
f5
f4
1b
fc
2d
d6
d1
01
f1
1a
1b
fe
f6
13
fd
1c
03
00
e0
0a
f8
d7
20
f2
25
2b
03
25
1e
1f
f1
2f
ea
12
e2
0d
ee
e6
04
1d
f6
0a
31
14
2c
e0
2e
09
1d
d1
f0
fb
eb
22
1e
2c
