e6
1f
07
d9
1f
02
05
07
0a
10
29
f6
e6
31
e9
2e
ff
23
ec
e2
0a
27
21
2e
03
eb
f0
e9
fc
ef
01
d7
e4
0e
f4
f9
fd
d7
f9
e7
08
cf
ee
d1
06
31
07
e3
ec
03
30
1c
cf
f0
ec
e9
ea
d3
f7
e8
fe
fc
2d
fc
12
e9
ef
08
ff
d1
26
de
d5
e4
15
fe
ea
e3
23
d2
13
da
25
f3
e0
03
ea
e9
e9
e1
ed
2d
ce
04
ec
27
2d
0e
04
26
2a
20
e6
10
f0
ee
ea
f6
25
26
e7
fc
de
29
13
ce
1a
fe
dc
f7
d0
1a
19
26
d3
d6
0a
2e
db
d7
1b
e7
dd
03
d7
e1
0b
ed
e9
1b
d0
2b
07
2b
27
e6
d9
14
04
2a
e9
d2
f7
2b
f3
fe
11
13
fb
1e
15
30
25
db
29
04
d0
fd
fc
d8
2a
f5
2f
2f
e4
00
06
0d
ed
fa
1b
00
2e
14
ea
f1
2a
2f
0a
dd
2c
e8
0a
d6
f3
2b
e1
f2
06
21
0c
23
0f
1b
28
22
1e
dd
eb
1d
12
ec
05
0f
21
d0
16
2e
2e
fc
2c
e0
1c
e2
e5
da
fe
22
eb
18
f9
df
d9
01
00
15
2d
ee
2b
d2
ef
fd
0c
f9
12
d2
0c
f6
26
09
11
de
f1
d7
e5
15
d3
28
d4
23
0b
d4
08
e4
17
ef
fa
2b
1b
22
d4
10
f5
10
16
1f
f6
0d
16
e4
f5
db
0b
da
17
df
09
ce
1f
08
2b
e2
da
e8
d4
12
21
05
cf
0f
05
30
ef
1b
16
1b
28
12
0f
07
d5
ed
0c
0b
f7
e3
fe
d1
fa
24
02
ef
f3
d7
31
1c
d1
12
f3
f8
00
17
07
ed
f5
0c
08
da
16
d7
f9
01
cf
ea
07
e7
ee
d7
d2
31
f9
d8
f7
f6
e2
d5
d4
0c
db
0f
ce
1e
f6
2d
df
18
f1
e3
e2
25
21
cf
d6
29
09
21
0f
fc
d5
1f
d0
30
0a
1e
06
1e
19
e0
2f
e5
fa
e8
e0
f6
17
db
e6
d8
d5
d0
21
23
02
23
30
fc
15
fd
d6
13
0e
03
03
14
e6
00
e9
1a
24
2f
24
09
d0
15
2b
1f
e6
29
e6
28
1a
f2
00
ce
d6
dd
2e
d9
ff
de
db
f7
f0
0f
0d
16
e7
2c
e4
e1
d7
fe
05
00
16
1a
12
26
1c
2d
19
e2
f7
1a
0d
02
10
d4
e6
dd
07
e3
03
28
27
e0
eb
ee
20
ef
12
29
f3
1b
d1
d3
2c
1d
f4
ea
11
ef
fc
e6
22
22
04
f6
27
2f
e3
ff
2b
d5
02
2d
f9
04
2c
fc
e2
f7
d3
ea
31
10
e0
15
07
29
18
2e
0d
2e
2e
28
d8
f7
14
24
26
21
03
1d
f3
df
fd
cf
27
d6
e3
eb
01
27
1c
28
dc
d5
2a
ff
ee
2b
0c
21
dc
ea
26
0c
d7
1b
f8
fb
d1
09
fd
08
1d
d1
dd
14
e6
fe
03
1f
2a
d3
d5
1a
2a
d5
f7
e2
e4
1c
19
ce
0d
27
04
23
04
ef
fb
fb
eb
e0
d8
e9
d0
15
fd
ea
fe
f8
d4
21
0d
e2
fb
d2
10
23
12
14
f0
d0
06
e4
f9
1e
31
ff
f0
29
04
20
17
ea
1e
e8
13
00
da
f7
e7
02
0c
29
ed
2b
15
2a
31
28
0e
f4
e2
ff
29
fc
23
2d
fe
14
e5
db
ec
2c
e2
00
ef
03
19
d9
fc
f4
d2
f1
25
d9
d8
27
ed
f2
17
f1
