EF
04
F4
F1
FC
FF
FF
ED
03
FB
02
FB
FD
FA
F9
06
06
F7
FE
FF
01
FB
FF
FE
FF
FF
FD
02
00
02
FB
02
03
F5
FC
04
03
FD
F9
03
00
01
06
00
F7
FF
FA
F9
EE
FD
F8
ED
00
01
01
FF
04
FE
05
04
01
FA
05
FE
03
FB
01
FE
03
02
FF
01
FE
02
01
02
04
00
FE
00
00
F9
01
01
FD
F9
01
03
FD
F5
FF
02
FF
03
01
00
FE
01
00
FE
FD
FA
00
00
01
03
01
FD
00
FE
03
03
00
04
00
FE
01
00
01
02
02
05
FF
00
01
02
02
02
FC
FF
FD
03
FE
FB
FD
02
FD
FD
FD
01
FC
FB
FE
00
FD
FF
FF
FE
FD
04
02
FE
FD
FB
04
FE
FD
08
FE
FD
00
02
03
04
02
04
00
FF
00
02
01
FF
00
08
00
03
FC
03
FD
03
00
04
01
FE
00
02
FF
00
FC
FE
00
01
FB
FE
01
FD
FF
F9
FF
00
FF
F8
01
FD
FA
F9
FA
FD
04
03
FF
FB
FC
04
00
00
02
06
02
00
05
09
FF
FC
06
09
FD
FE
07
06
FF
FF
03
05
01
FE
FF
03
03
FE
03
05
FF
FD
FE
00
02
FE
FA
F7
03
FB
F6
FD
FF
FB
F2
FE
FC
FD
FF
02
04
F2
05
07
00
FD
07
0B
FD
05
09
09
FF
FC
06
05
FC
FD
05
06
01
FD
03
05
01
FF
FF
03
00
FD
02
06
01
00
FC
01
04
03
03
07
02
01
FF
FD
FE
FF
04
FB
FF
01
01
02
FF
01
01
06
FF
05
00
02
FC
05
04
03
FD
05
03
04
FD
02
04
03
01
00
FE
04
00
FC
FE
02
01
FE
F9
01
00
02
FE
04
FF
05
01
FB
00
03
04
F5
FE
04
00
00
03
FB
05
00
01
08
01
FB
FB
05
FE
FC
F9
06
FB
03
FE
06
FE
02
FD
07
FC
01
FF
01
F8
03
02
02
FE
00
00
02
FE
FF
FE
04
FF
FC
FD
02
02
F8
FA
00
FE
F5
00
FF
00
01
01
FC
03
01
FD
02
01
FA
FE
03
03
F4
00
05
01
02
FA
0A
02
02
FF
05
00
09
FE
03
00
05
FD
04
00
02
FE
05
FA
FE
01
05
FD
F9
02
02
FA
FE
FE
FC
FB
04
00
FF
FE
F9
FA
FD
06
FF
01
01
FD
02
FE
FE
02
FC
00
05
04
00
00
07
FE
02
FD
03
03
02
FF
00
03
01
FD
01
02
04
02
01
01
FE
02
02
00
FC
01
FF
F5
00
04
F9
F8
FE
01
FC
F5
F7
FC
F5
01
FC
FD
FC
00
00
03
FF
FF
FD
04
04
04
02
03
05
06
02
FE
01
05
01
FC
FF
01
03
01
FF
03
01
00
00
01
FD
01
01
FD
01
02
F9
FA
FF
00
F7
05
FB
04
FB
05
FE
FD
FE
04
02
02
EF
02
FC
00
07
04
FD
02
01
06
FF
01
02
02
03
00
03
07
FE
02
00
08
03
FD
FD
06
00
00
F9
05
FF
00
F7
02
01
01
00
F4
FE
04
F9
08
F9
02
02
F8
0A
FF
F9
F5
F9
09
F4
F7
01
FF
F0
F8
F9
03
F4
F6
02
00
F4
F9
04
FE
F5
FA
04
00
FC
FB
04
00
FC
04
FF
02
FF
01
05
00
FB
FA
06
02
FC
F3
FA
03
FD
F3
F4
03
FE
F0
FD
F8
F5
