FE
FB
FE
FE
FF
FA
FC
FD
02
FF
FA
03
01
08
FF
FD
02
04
FA
02
02
00
FF
03
03
05
FD
04
FF
FD
02
FF
FE
F9
FF
05
FF
FC
01
01
FF
F4
FF
FC
05
F7
06
02
FD
02
00
03
FE
FE
FE
00
FD
05
00
06
00
01
FE
02
00
09
03
FF
FE
04
00
00
03
01
02
05
00
04
FD
FE
01
F8
00
00
FD
FD
FE
02
FF
FE
00
01
FE
F8
FD
02
03
F7
02
FE
FB
FB
FC
FE
FF
00
03
FC
FF
FF
02
04
FD
04
FF
FF
00
05
FF
FF
00
02
FF
FF
FF
00
FF
00
01
FE
00
01
FF
FF
00
04
FA
FF
01
03
FC
FE
FF
00
00
FE
FE
FF
FF
F7
00
FB
FA
02
05
01
05
F9
01
FB
03
01
03
F9
FF
05
02
FC
00
04
01
FE
00
03
02
00
FE
03
00
03
F9
02
FE
00
F9
06
FF
07
F8
02
FD
02
F9
FE
01
00
FC
F6
01
FE
00
01
01
00
FF
06
02
01
FA
FD
03
FC
03
06
01
00
03
02
03
02
FD
0B
FD
03
FE
08
FE
FC
FB
03
00
02
FE
03
FC
00
FD
02
01
FF
00
00
01
FF
FF
FA
02
00
FA
FA
02
FE
FF
05
02
00
04
F9
00
00
FC
FB
04
F9
FE
06
01
FE
06
0C
00
05
02
0D
FC
01
02
09
FA
02
04
07
00
02
01
06
FC
00
02
04
FE
FE
02
FF
FC
FA
00
02
FF
FB
07
03
02
FF
00
FD
01
FF
03
04
02
04
06
F7
00
01
06
07
FD
FF
0A
0B
F9
FF
08
09
FA
FF
06
0B
FA
00
03
07
FE
FD
02
FC
FD
00
02
01
FE
FD
00
01
FE
FE
01
F8
01
00
07
F8
04
FB
06
07
01
01
FD
0B
02
02
03
F8
F9
FD
04
F5
FF
FD
03
FE
FF
00
06
FE
FE
FE
07
04
FE
FC
05
FB
00
FE
08
FC
02
01
03
02
02
00
04
FD
00
FE
05
FF
01
FC
04
00
FE
05
06
06
01
03
05
05
04
02
03
0C
02
FB
FE
04
03
FE
02
FC
02
FE
02
FF
00
FF
00
03
01
FE
00
04
01
FC
04
02
FF
00
06
02
02
03
03
01
01
04
02
FC
02
04
07
02
FF
04
03
03
00
04
05
05
06
02
01
FB
03
F9
01
04
00
FA
FC
02
04
F9
00
00
05
00
FB
FF
04
FB
01
05
00
FD
01
00
02
00
02
02
03
03
04
03
02
06
01
02
FE
08
08
04
02
05
08
00
02
04
05
00
03
07
FC
0B
07
FC
F9
06
01
FE
F9
01
04
FD
F9
00
03
FD
F6
FF
05
01
FC
01
00
00
02
FC
FE
03
FD
02
00
03
04
FD
00
08
00
02
02
07
04
02
FF
06
02
FF
FB
01
04
03
02
04
FF
07
03
FE
FD
05
02
02
F5
02
03
FC
F7
04
00
00
FD
FD
01
03
FC
00
01
05
FD
02
FC
01
F9
FF
FF
0A
05
FD
01
09
08
01
FC
0C
07
07
FE
06
02
02
01
FE
FA
FE
FD
06
FA
F0
F4
FD
FF
FC
FA
FD
01
F6
03
00
FB
00
FD
FA
02
F7
FD
FE
F5
00
FF
00
02
03
FB
FD
FB
FD
FD
FD
F7
FC
FE
FD
FD
FF
FC
FF
FD
FD
02
FE
FF
FA
FB
02
FE
FF
FD
02
