f7
fb
0b
f2
fe
0b
0f
ec
02
0e
0d
ec
07
0d
fc
ea
09
0c
f6
e2
09
0f
f5
f1
0a
05
09
fe
08
02
0e
09
06
00
19
0b
0a
00
17
17
ff
fb
15
14
ff
fc
16
0e
0e
04
15
06
f4
fb
0b
fe
06
08
0a
e9
04
0a
fc
e4
01
06
f2
e5
06
0b
ec
e7
0c
06
f6
f4
0a
00
fd
ff
0d
fc
06
0b
0c
fb
0c
0e
08
f7
12
11
0a
ee
12
11
04
ef
18
1d
ff
ed
16
12
f5
f9
0b
f8
fd
07
06
ee
fe
05
fd
e5
ff
01
f1
e5
03
fd
f5
e8
05
00
f4
f9
06
fd
f9
00
08
fa
02
0f
0d
f5
05
11
08
f0
0b
15
0c
e9
12
1d
09
e6
14
20
ff
e4
12
23
f4
f6
0f
ef
f6
f6
03
e5
ed
f8
fc
e9
f5
ff
f3
ef
f9
00
f0
ec
fb
02
ef
f8
06
fe
f3
03
07
f9
fa
0a
06
f4
fe
15
06
ef
00
16
07
e8
07
26
07
e5
08
21
fb
e5
0e
24
eb
ed
06
f1
ee
f4
01
f6
ed
08
f4
f1
f2
05
f5
f4
f8
02
f5
f9
fd
fd
f5
fe
ff
f9
f0
03
01
f9
ee
12
fe
f9
ef
1a
fb
f3
f2
1c
fd
f1
f8
23
ff
ed
fd
26
fb
e9
08
27
ef
f8
01
f7
e8
03
f8
fc
ea
06
e8
03
ed
03
f1
00
f8
fc
f8
05
fb
fc
f8
09
03
fa
f5
0b
02
fc
ec
13
fa
fe
e8
1b
f5
fc
ea
23
f1
f8
ee
1d
04
f4
f1
21
f5
e9
fb
1b
ed
f8
01
03
ec
0f
f0
0c
e9
0e
e7
09
ef
09
f0
0a
f0
03
f8
07
f8
03
f9
0b
02
02
f8
07
fe
07
f3
0f
fc
04
ee
16
ed
02
ee
18
e5
04
eb
1c
f1
02
e8
18
fb
02
ec
11
fc
03
0b
09
f6
07
f9
17
f6
0c
f1
12
fa
04
ef
12
fa
ff
f5
0b
fa
01
f6
08
fb
05
f5
0b
ff
04
f3
0e
fe
01
f1
0c
f9
01
f4
09
ec
07
f3
0d
f4
0b
f0
10
02
11
ea
12
f4
03
09
05
fe
0c
f6
0e
fd
0c
ef
0e
00
03
f5
12
fc
03
f5
0d
fd
04
f8
0e
fe
02
f8
05
01
05
f7
07
01
06
fb
02
ff
03
f9
fb
f5
06
f9
ee
fa
0a
f8
e3
07
10
f6
e6
01
09
10
05
01
07
f8
09
04
03
f2
0c
05
05
f3
0b
05
03
f7
0a
01
06
f7
05
04
06
f9
00
ff
02
fa
fd
05
03
ff
f8
01
05
fd
ed
f9
05
fb
e7
f1
04
fe
d9
f3
0b
fe
e8
05
05
0d
fd
0d
11
fd
03
07
04
ee
09
09
07
ed
09
06
04
f0
05
05
02
f8
03
08
02
fb
04
08
01
fd
fb
05
ff
ff
f6
06
fc
02
eb
07
01
03
e4
01
01
07
e6
e6
05
03
f3
fb
06
0b
fd
08
0f
01
00
06
08
f1
03
0c
02
f0
04
09
02
f7
05
0c
01
fc
01
08
fd
02
03
0d
fe
04
fc
0b
fa
03
f6
09
f8
05
f1
09
f8
06
f0
fe
fc
0a
ee
ea
fb
06
f9
ef
f7
0e
f4
02
00
fe
fe
04
0c
ee
fe
08
05
e8
00
0b
04
ee
07
0e
02
f8
04
14
00
fa
02
0c
f9
03
02
0f
f0
0a
fb
0d
ef
0a
ff
0e
ed
07
f9
fe
f6
01
f0
f6
fa
00
f9
