e3
fa
1e
16
06
06
17
19
17
0b
1b
0f
10
06
1a
08
0b
06
1a
06
05
04
10
0d
02
04
05
0e
00
04
fd
0c
fc
06
fa
07
fe
00
fb
07
fd
05
f8
0d
fd
0b
fa
0e
07
fd
08
15
00
04
1b
1d
17
06
15
0f
19
17
0a
f1
0e
04
0d
ed
0b
01
00
f2
ff
ff
f8
f9
01
fe
f0
f7
f9
01
ef
ff
fb
02
ec
f9
ff
fd
f2
fc
f9
06
f1
fc
ff
08
f3
fa
0b
15
ee
10
06
e1
18
15
18
08
0a
ec
17
02
01
de
0d
01
ee
e4
07
fe
f5
ee
01
00
f6
f4
fd
f8
f3
fa
f9
fc
f4
01
fb
01
f0
ff
f4
02
f4
fd
fb
06
f3
f6
fe
0c
f6
ed
0c
1f
e7
f3
0e
f9
16
f5
1c
05
01
e0
19
f5
f7
d7
10
ff
fb
dc
08
fb
fe
e3
01
fa
fb
f2
02
ff
ff
fb
fe
ff
fc
01
f9
05
f9
01
f7
07
f6
00
f4
0e
f5
fa
fb
15
f5
ed
12
26
e2
db
11
fe
0c
e9
0e
06
f9
d4
10
fd
01
dc
0f
fd
00
e3
0b
f9
03
ee
00
f8
0b
f4
f9
f8
09
f3
fa
06
ff
f9
f8
09
fa
fd
f5
0f
fe
fc
f9
0e
fe
f5
02
16
fc
eb
1b
26
eb
c9
09
06
13
dc
10
09
05
d3
0d
fa
03
d0
0a
fd
07
e2
07
fc
0c
f2
01
ff
0e
f8
f7
00
07
fa
f1
0a
00
f9
f5
0b
fc
fb
f5
0c
03
fb
f4
0e
05
f8
f8
13
01
e5
11
26
eb
d7
08
04
13
e5
03
fe
0a
d1
04
01
08
d4
07
fd
07
e2
00
06
0a
e9
fb
09
0b
ee
ef
0c
08
f5
f8
03
0c
fb
fe
08
0a
ff
f9
07
0e
ff
fa
0b
0e
f5
fe
0d
08
ed
0d
16
fa
dc
05
08
11
ed
05
0b
03
ea
02
07
03
e6
fc
0a
07
e3
fc
06
03
e6
fc
0d
0b
eb
00
08
0d
f5
02
fd
0b
f4
03
f9
11
fd
02
fe
11
02
03
04
09
f8
04
04
0c
f4
02
0c
02
ee
ff
0e
14
fd
f6
03
0c
fb
fe
08
01
f3
fb
06
03
f4
fd
08
09
f2
fa
09
07
ee
fe
0b
03
f7
03
01
07
fb
04
f8
12
fe
01
f6
10
05
fb
fd
0d
02
ff
fd
04
f9
fd
02
05
fe
ff
07
14
fe
f8
07
08
00
f3
0f
02
f8
f1
08
03
fb
f5
09
fe
fc
fe
07
ff
fa
02
05
04
fd
04
00
fd
01
09
f4
0c
fe
06
f1
0d
02
00
f3
0b
fa
02
f1
09
f8
07
f3
10
f2
fa
02
18
07
ef
06
04
02
f3
0a
f9
fe
e9
05
f3
fc
f0
0c
ed
fb
f9
0b
eb
fd
03
07
ed
fd
05
04
f3
00
0c
f3
01
02
03
ea
08
fc
02
ed
05
f9
fd
eb
0c
e9
fa
f4
13
ec
02
ff
19
0a
e9
05
04
09
ef
0d
e8
06
eb
14
da
05
ed
12
d5
02
f8
13
d3
fe
fe
08
d8
fd
08
fd
e8
00
09
ec
f8
01
09
e7
fe
f8
11
e5
04
f0
0b
e5
0f
ec
02
e5
14
ec
07
fb
15
1c
01
0b
08
11
f7
1e
eb
0a
ea
30
d3
06
ea
24
cc
01
f8
13
d7
04
02
f9
dc
02
09
ec
e7
01
11
e0
f5
07
0f
dc
fa
fb
10
d6
01
f6
f0
d5
03
f0
f1
ca
02
ef
