0d
04
01
f0
08
fa
f7
03
00
f8
fe
0b
fa
fd
fa
16
fc
03
f2
1a
fb
06
e9
19
f6
0a
ec
13
fc
11
f2
10
f8
14
f1
03
f9
11
f6
f6
f8
12
f6
f8
ff
0e
fa
f2
f1
07
f5
f3
00
fa
02
02
03
fa
ff
0e
ff
f4
03
13
ff
f7
fd
11
f9
fc
f7
15
f6
00
f3
11
fa
04
f4
0c
fc
07
f7
03
f8
0b
f3
08
f8
08
f1
fe
fe
06
ef
ec
f6
0b
f3
e1
07
0b
f3
eb
00
ff
02
05
00
f1
fe
0c
01
f6
09
11
01
fb
0d
12
fe
00
01
13
fa
03
ff
15
f6
07
fc
11
f8
06
f6
09
f8
04
f7
03
f5
06
f7
fe
f4
09
f9
ee
f5
0b
fc
dd
01
07
fc
db
f8
fa
fd
0b
02
f6
04
0f
03
f5
06
13
01
f5
0c
11
fc
f7
0a
0f
f8
00
05
11
f6
06
00
0f
f9
06
02
06
f8
08
fd
01
f5
04
fc
f2
f2
08
fa
eb
f0
06
ff
d7
f6
06
01
d7
09
f5
02
0a
07
f3
01
10
05
ec
08
0b
01
f3
09
10
fe
f7
0a
0b
f5
fc
07
09
f5
fe
08
0c
f7
02
08
05
f8
01
03
02
f4
01
02
f3
f2
02
04
e7
ff
ff
05
e5
fd
ff
0d
f4
14
f9
fd
0b
0f
f5
01
0e
12
f7
06
0e
0f
f9
04
0f
08
ff
01
0b
02
00
01
0b
fb
04
05
08
fc
00
09
00
ff
00
07
f9
04
fb
06
f3
06
fe
09
f3
06
fb
0a
f7
03
f2
0e
0e
17
03
01
00
14
f6
01
07
16
f8
fd
05
16
f8
f9
02
13
f9
fc
01
09
fe
f9
00
06
fe
fb
f8
00
01
ff
f5
01
fb
05
ec
07
f9
08
f3
08
fa
06
02
0c
f7
09
06
01
eb
13
0e
0d
fd
f6
f9
10
eb
ec
04
14
ee
f2
03
13
f6
f3
fa
12
fc
f0
f2
0e
fd
f3
f4
09
fd
f5
f5
00
02
fd
f8
04
ff
00
f8
04
fd
04
ff
08
fb
06
0c
09
f6
07
14
02
eb
0b
1c
0b
fa
f2
fa
07
f6
f0
ff
0a
fa
f7
f8
0c
fd
f1
f8
0b
fe
f6
f2
0b
ff
f7
f5
06
00
f6
f7
04
01
f8
fb
07
ff
fc
05
05
fc
fe
0f
05
fd
02
18
09
f6
00
19
05
f3
0a
19
05
04
f8
ff
04
f9
f9
f8
05
f9
f5
fa
09
fc
fc
f9
0a
03
f7
f5
07
00
f6
f4
07
04
f2
fa
07
07
f0
01
07
05
f5
09
0a
01
f9
14
07
fe
fb
17
06
ff
fd
20
07
fb
fc
1b
fa
f8
fe
fd
02
fd
fa
ff
01
00
f5
fc
02
fe
f5
fb
04
04
ed
fb
02
02
ec
f6
03
00
ec
fc
06
05
ee
03
04
07
f3
0b
04
06
f9
11
0b
05
f9
17
09
02
fa
18
18
06
f7
18
f6
fa
03
02
00
01
f8
fe
ff
02
e2
ff
ff
05
e7
01
f8
05
ea
01
fe
04
e8
fc
fd
04
e7
fb
00
05
f1
03
04
05
f4
09
ff
07
f5
0c
04
0b
f7
16
09
0a
f4
16
1c
02
f6
14
f4
f8
fe
0b
fb
13
f3
03
03
0a
e7
04
06
13
e6
06
fd
0f
e9
02
fc
0f
eb
00
fb
00
f2
01
f8
fc
ee
00
05
ff
f6
02
05
08
f6
07
04
09
f8
09
06
09
f9
09
19
ff
fe
0b
