db
ea
ec
e9
ec
f1
e7
f1
fa
f6
ec
e6
fc
fb
ec
f1
fd
00
e5
f2
01
00
eb
f3
fe
ff
ee
f9
01
f9
e9
fe
fe
f5
e1
f9
f9
ef
d7
f7
fa
ec
d9
e1
f7
e7
e1
ed
e5
c8
ea
ea
ec
f3
e8
f1
0b
f8
e8
f1
15
ef
ed
eb
13
f2
e9
e0
10
f7
e4
ff
0e
f8
e2
ff
10
fc
db
07
07
fd
e5
ff
03
fa
ec
0d
ff
02
ed
0f
fb
05
ef
04
f4
fb
ea
fc
e3
f5
ee
ee
09
f0
e8
e5
0a
f3
ec
e5
0f
e9
ee
dc
12
ee
02
ea
13
f8
f6
f7
12
fb
ef
f7
0e
00
e8
fc
0a
00
ed
02
06
00
ee
07
00
05
f3
05
f9
04
f5
08
f3
04
f3
07
e8
01
f5
f0
0c
f6
e6
e2
04
e8
f7
e0
04
f4
08
d9
09
f4
0c
e4
0b
f9
04
f3
0b
03
fb
f6
10
06
f3
f3
0a
08
f6
fa
06
04
f0
01
01
04
f3
01
f9
06
f3
fd
fa
03
fb
fe
ef
03
f8
f6
01
f1
ef
e8
fd
f9
01
e4
fc
01
fd
ea
ff
05
f6
ef
06
0b
f5
f6
0d
0a
f4
f7
11
0b
f6
fb
0d
0d
fb
fe
09
06
fa
03
fd
03
f8
07
fc
06
fb
fd
f7
06
fa
fa
f0
09
fa
f0
f2
fa
ed
ea
fc
06
fd
ef
fc
09
f6
f1
fd
0d
f7
f8
04
0b
f4
fe
0c
08
f9
01
0c
06
fb
ff
0a
03
02
fb
01
ff
04
fe
00
fd
01
07
fb
01
01
fc
f3
07
fe
fc
ef
07
ff
f1
e4
ff
ef
f5
f0
0a
ff
f5
f4
11
f6
f8
fb
08
f9
fc
03
07
fd
ff
0d
04
fd
04
09
00
fe
08
07
fd
09
01
02
f9
0a
fd
03
fb
06
fc
00
fe
03
f5
fb
ff
04
fa
ee
fe
03
fe
e2
fd
ef
f6
e7
0e
fb
fb
ed
09
fe
fd
f4
06
01
02
fd
04
fa
05
04
01
fc
09
04
fb
fe
0e
03
f4
10
04
03
f5
0b
fa
fb
fb
08
f2
f8
fd
08
ed
f3
02
03
f0
e7
06
07
ef
e9
00
f2
fc
e6
0b
fb
ff
f1
0b
f9
02
f5
0b
f2
05
fb
03
f7
06
01
00
fb
0b
00
f6
05
0c
01
f1
0e
02
fa
f7
0a
f9
f0
fa
08
f3
e8
fe
08
ee
f6
03
01
f5
f3
09
ff
f6
f8
ef
f3
fa
f5
02
f9
02
fb
00
ef
01
fd
00
f8
03
fe
fe
ff
05
01
fa
06
09
01
f2
10
06
00
f6
0f
fd
fc
fb
0b
fd
ef
fe
07
fb
e8
03
04
f9
f3
04
01
f8
fd
08
f5
03
0a
f0
f1
03
00
fa
0a
01
f9
f4
17
fc
01
f6
12
01
03
f9
16
00
01
f9
11
06
ff
f5
14
07
03
fd
13
00
fb
01
0c
01
f7
06
0a
03
ee
05
04
04
f5
07
00
07
02
09
f8
09
04
fe
f9
fe
07
f0
0d
ff
04
e9
19
fe
05
e8
1b
fd
06
ed
1b
fd
04
f0
19
00
fc
f6
17
fd
00
fe
15
02
f5
04
0d
05
ec
05
03
06
ed
0b
05
05
ee
0d
fd
08
ee
0b
f5
0b
05
0d
f1
f2
09
e7
07
f5
03
d9
19
f6
02
d3
22
f8
01
e2
1b
f9
ff
ee
14
f9
fa
f9
11
fb
f6
06
07
ff
ee
0f
02
ff
eb
15
fd
06
e0
18
fc
05
f3
14
02
04
ff
15
ff
13
