0c
03
04
ef
f1
11
ff
f1
f4
f9
f8
e3
eb
fc
fb
f0
ed
01
f1
f8
f3
00
ef
f3
00
f9
e9
fd
01
fc
e6
f5
07
f0
e2
f2
04
ee
e6
eb
f6
eb
e7
e8
00
eb
ea
e1
ec
dd
ef
e5
f0
fe
03
f3
e9
f7
fa
0b
ec
ff
f0
19
f5
08
ea
1a
f6
08
de
1e
fa
0a
df
13
02
07
db
11
03
04
e6
06
ff
fc
f0
ed
fc
fa
f9
f2
01
fa
f8
ea
02
03
f0
e6
f2
ff
f6
e9
fb
13
03
05
fb
04
ee
12
f6
08
e1
1d
f5
0b
e3
1e
fa
0e
db
18
ff
09
d4
12
ff
ff
d8
0d
01
fb
ea
05
ff
fa
f5
fd
fe
fc
f7
ea
01
fd
fb
e0
05
01
fc
e3
f6
05
f5
e6
08
0e
ee
12
fd
0d
d6
15
fd
0c
db
1c
fa
0a
ed
1d
fa
08
ec
15
fb
04
ea
12
fa
01
ee
10
00
fc
f6
04
00
f7
f8
fd
02
fc
f8
ef
ff
ff
fc
dd
fb
06
f7
df
ff
0b
f6
dd
10
1c
ed
08
02
08
e4
14
01
09
ec
1b
01
03
fc
19
ff
00
06
19
fd
fe
01
16
fa
f8
fd
09
ff
fa
00
05
03
fa
02
01
08
fe
ff
ed
00
02
fb
e3
06
06
fa
e7
ff
06
f7
e9
16
15
ee
09
09
fc
eb
11
07
f4
fb
13
03
ef
0a
14
fe
ef
12
13
f8
f7
0e
0f
fa
f6
0e
09
fb
f4
09
03
04
fb
04
fb
04
00
03
f1
09
03
02
e5
06
04
00
f1
f7
06
fe
f1
0c
05
f8
08
06
ed
00
0c
ff
e7
11
0e
ff
e5
14
0d
ff
ef
18
0d
fe
ee
1c
07
fd
f0
16
03
fe
f4
06
06
fd
fc
02
fe
00
fd
06
f3
04
fd
0a
ee
07
00
04
ee
01
fa
08
ec
08
f1
00
0c
07
db
12
0a
09
df
1e
0e
06
e8
27
11
00
eb
23
0d
02
ed
21
09
fe
eb
19
fa
fe
f8
0a
fb
fc
fc
05
ff
03
fd
04
fd
02
fb
07
fb
05
00
06
f9
fe
fb
0b
f6
06
ec
09
05
09
e5
1f
08
04
e8
2d
06
0a
e9
2f
0a
fd
eb
26
05
fc
ec
1f
ff
fb
ec
12
f4
01
f8
06
fe
01
fb
06
02
04
fb
06
00
0b
fd
09
03
0a
00
06
fd
04
f8
07
fd
06
e9
01
f6
08
e0
15
fe
06
d3
26
fd
0a
d5
24
04
fd
e4
1d
01
fa
ea
18
fd
f9
f5
13
f4
fd
f8
05
fb
fc
f9
04
04
fe
fd
04
01
02
03
02
00
05
01
02
ff
fd
fe
03
f4
09
f4
03
f8
01
d3
06
fd
08
db
19
f8
05
d8
1e
fe
02
eb
1b
f9
fb
f8
16
fc
f9
fd
15
f8
fa
00
0e
f4
ef
02
08
fc
f5
06
06
f6
f1
05
ff
f7
fa
02
fb
f6
f6
02
f7
f3
0a
eb
00
fb
0e
e1
0b
f8
05
d5
20
f9
05
d7
21
f9
03
e7
1f
f9
fb
ee
1f
f7
f1
f9
1a
f6
f1
fe
17
f8
e7
09
0c
f6
e8
08
03
f8
dd
0f
05
f0
e1
0f
fd
f4
ec
14
fa
f2
06
df
05
f6
0b
ec
01
f6
04
d9
1b
f4
06
d9
23
f2
01
e5
1d
f4
ff
f6
19
f6
f4
02
15
f3
e9
10
0b
f6
d7
1a
04
f8
d0
1b
01
f9
d5
1a
03
f7
e7
18
00
fc
04
0f
f8
f6
