01
05
08
23
04
fd
04
08
fb
19
16
0a
03
21
2e
ec
fc
0d
2f
da
f8
0f
2d
ba
00
04
25
ce
fd
01
23
e4
00
fb
22
f5
00
00
1f
08
fd
fd
1f
15
00
fd
14
10
f4
fd
18
14
0b
13
0a
0d
fb
13
0f
f4
01
1d
20
de
00
20
23
d7
fa
16
24
c4
fe
04
1e
c5
fe
fe
19
e2
01
f5
1a
f2
05
f6
1b
fd
05
f6
16
04
05
f4
0f
0f
fd
f5
0e
12
e9
e8
11
10
f0
09
06
03
fd
14
13
df
0b
13
1d
cc
03
15
15
c9
00
05
1b
d4
01
fb
1e
d6
04
ee
1d
e9
06
f7
16
ff
0c
f4
14
08
0c
f0
13
0c
06
f4
0c
14
03
f0
10
13
e3
e4
14
0e
ee
ef
0a
f1
fe
09
16
da
09
07
0e
c6
09
07
0a
c7
04
f8
0f
cd
03
f3
17
db
09
f3
16
ef
07
f1
11
06
0d
f2
0b
07
0b
f3
0b
07
07
f6
06
12
fd
f3
00
14
ea
ef
0b
15
e8
f9
0b
ee
00
05
0e
d0
05
0a
0f
cd
0b
01
07
be
05
fb
05
cf
05
f9
0a
d8
07
f3
05
ef
0b
f7
04
01
0e
f5
ff
08
08
f3
fc
05
09
f8
fc
10
f8
f4
fe
13
e8
f7
fb
11
f5
00
11
e9
00
17
18
cf
00
09
07
d1
fd
04
fe
bb
00
ff
f5
cb
09
01
fa
e1
0d
ff
00
ed
0e
04
fd
f9
0b
02
f5
fd
05
fd
ef
03
00
00
f3
07
fb
fe
fb
06
f8
04
f4
fb
06
fc
0d
e1
02
07
13
d0
fc
fe
06
d0
f8
ff
fe
c9
00
03
f9
d9
05
05
fc
e4
0c
07
f8
ee
10
0c
f7
f8
0e
0b
f2
f8
03
04
f4
f8
01
03
f6
f4
03
04
fb
e9
fe
07
f9
ea
f8
00
07
f0
00
fd
0e
e7
f6
0d
05
eb
f5
07
fb
e2
f7
0a
f8
e3
fe
07
fb
e3
08
0a
fb
ee
0a
0e
f4
f7
0c
0b
f3
f7
08
09
f9
f7
07
09
fd
f5
ff
07
ff
f3
03
02
04
f0
f4
f9
06
f7
f6
0d
05
f1
f5
07
fb
ee
f3
0e
f9
f0
f1
0a
f8
f1
fe
09
f7
f2
02
08
f3
fa
07
0f
f5
01
06
0e
00
ff
02
0b
fc
fb
01
05
ff
f7
06
02
00
00
05
fa
02
00
fa
c4
07
f6
f3
08
ff
f8
f3
12
fd
f7
ea
0f
f7
fd
ed
0d
f2
fe
f9
08
f8
00
fd
0b
f2
08
fe
09
f4
0a
01
09
f6
04
06
06
fc
fb
06
00
fd
f8
fe
fd
00
fc
01
f2
0b
00
ed
f7
07
f8
ed
05
06
02
e5
11
f5
02
db
13
ea
01
ea
12
e1
02
f2
0b
e2
03
f3
07
e7
06
f6
08
eb
0a
fa
04
f5
06
fd
fd
fc
00
05
fa
ff
fc
09
fa
03
f5
06
f1
08
00
ec
ef
0b
ff
f0
ef
06
06
eb
05
01
04
e6
1a
e2
09
eb
1c
d9
0f
f2
15
d8
07
f2
10
e0
07
fc
02
e5
08
fe
f6
f2
02
03
ec
fa
ff
05
ed
00
fd
0d
ed
fd
fe
f9
ed
05
eb
da
f6
05
fe
e1
ec
06
08
dd
d3
03
08
ce
06
f4
0a
db
06
eb
0f
de
02
ed
09
e9
f9
eb
0e
f0
eb
e8
09
fc
e1
f2
09
09
d6
f4
04
f0
d1
ef
fe
00
cf
f7
f9
d7
d8
ff
ef
