e0
07
d1
c9
f5
fa
d6
da
e4
e9
df
d9
e8
e5
e3
ea
ec
e5
ea
e6
eb
d7
ed
e6
f1
da
f0
ea
f7
dd
f3
e2
fa
df
f8
df
03
e5
fe
d3
fd
ed
fc
d7
05
f7
fd
da
f7
fb
f8
d9
ff
f9
d4
d1
f9
0a
d8
e9
f1
03
f1
e8
ef
05
08
f4
e6
fd
17
e9
e6
00
1d
e8
ed
00
1a
e3
ef
00
18
dc
f6
fb
14
d5
00
fb
10
cb
06
fc
0c
dc
0b
fc
09
e1
07
fe
fe
dd
fe
06
d5
e7
f4
10
ec
e8
f7
1f
00
e2
f2
17
11
d8
f2
0e
19
de
f2
07
20
dd
ee
02
18
d8
f3
02
18
d7
f9
fe
17
d4
02
00
12
d7
09
ff
10
dd
11
fc
09
e6
14
fc
04
ef
ff
10
dd
e5
fb
16
f3
e2
fd
15
08
df
fa
15
0a
e0
f9
09
15
d8
f4
08
14
dc
f4
0a
17
d7
fa
09
16
dd
fd
07
14
d7
04
02
12
ce
0b
05
0e
da
15
fa
0d
ef
14
fd
0d
f6
fa
0f
e8
eb
fe
1d
00
e2
02
0e
04
de
fe
12
05
e3
fd
13
06
e2
f9
10
08
e2
f9
0c
07
e0
f8
09
0f
df
ff
04
0d
d9
09
04
10
df
0b
02
0f
e9
14
fc
11
f1
1a
f2
12
fe
f8
0a
ea
e9
fd
0d
fc
f0
03
0a
ff
ef
06
09
00
fa
04
0c
02
fb
02
0e
fe
f7
fe
0d
ff
e9
f9
06
08
e0
00
04
08
e7
06
03
08
ed
08
03
0c
f3
0b
fc
0a
f7
11
f6
11
0a
fc
f4
de
f8
03
fc
ea
f6
02
01
f9
00
06
ff
00
00
09
07
fb
03
02
05
01
ff
ff
06
fd
fa
fe
00
fe
f5
03
ff
04
fa
05
00
07
fb
07
02
07
02
05
fd
05
04
06
fa
07
10
07
f1
d8
fd
05
f7
e2
04
00
fa
f5
03
02
ff
01
0c
01
07
fc
08
02
06
f9
02
ff
01
fd
02
02
ff
ff
01
07
fb
03
07
07
fe
05
05
09
ff
04
0a
09
00
05
03
06
fc
06
ff
02
e5
dc
02
06
ef
e5
02
08
f5
f7
05
05
fe
f6
0a
fd
03
f3
07
ff
02
fa
04
03
fc
f7
03
04
fa
f8
ff
02
fc
02
04
01
fb
04
07
fd
ff
07
09
00
00
00
12
fd
02
01
0c
0a
ec
e4
05
05
e2
f1
06
01
ea
fb
07
02
fd
00
08
ff
fe
ff
06
01
fc
03
00
01
fa
09
01
fe
fc
03
00
f9
fc
04
02
f5
fe
03
0c
f6
03
06
10
fa
05
01
10
fc
02
ff
0a
fa
ff
de
fd
01
e2
f7
02
08
e9
1a
04
02
ea
1b
06
01
ef
1c
00
fb
f3
19
00
fe
f7
16
01
f8
fe
0f
04
f0
02
0a
07
e6
04
07
0a
f3
04
02
11
f7
07
00
0c
00
08
ff
08
f9
f4
d1
fb
00
f1
f5
fc
00
dd
1c
fd
fe
e7
25
ff
f9
ea
22
fe
fb
f0
1e
fd
f9
f8
18
ff
f6
fd
14
03
e9
08
08
09
eb
07
06
0a
ef
09
02
0d
ed
0a
01
10
04
08
fd
fe
e5
00
d6
e7
ec
ee
ee
f2
f2
ec
0e
f4
f1
e8
1a
fa
ed
ed
1c
fa
f5
f7
15
fc
f4
fd
11
fc
f3
05
0b
02
e9
0e
06
05
f3
0b
04
0c
eb
06
03
07
ff
02
00
09
f7
05
fa
01
