01
f8
fa
ff
ff
06
fc
02
fe
00
04
08
fd
fa
02
12
ff
01
02
1b
00
03
f7
1b
ff
0a
e7
16
03
0d
e5
0c
ff
0b
eb
00
fe
0e
ee
f1
fe
0e
f6
f3
ff
0a
fc
ee
f4
01
fb
f4
00
fc
fc
06
ff
f4
ff
0c
fa
f7
08
18
ff
f6
02
14
ff
ff
f3
18
00
06
f4
15
02
0b
ef
0c
04
09
f0
05
ff
09
f2
fc
fd
0a
f1
f1
00
07
f3
e7
fe
0e
ed
ed
fe
0a
f4
f2
ff
f7
fc
05
f8
f5
fe
12
fc
f6
00
1a
fe
f5
00
16
02
fb
f2
10
03
08
ef
12
fd
08
f6
0e
00
06
f5
04
01
06
fa
fb
fa
06
f9
f8
f8
08
fc
e5
fa
09
f9
df
fb
0d
f9
e3
fe
fc
fe
0f
fb
fd
07
18
fa
f7
01
1a
00
eb
04
14
04
fa
f9
0f
06
05
f7
0c
06
05
fd
0b
04
03
ff
03
00
ff
fc
fa
fe
01
f9
fa
f9
02
fc
e9
f5
01
fe
db
fa
0a
fc
dd
05
00
00
15
f9
f1
0a
19
f6
e0
13
1a
f9
e3
0e
15
02
ea
07
0d
06
f1
00
09
09
f8
06
0e
04
fc
ff
08
fd
fa
fb
ff
fd
fe
fa
fc
fb
01
fc
f0
ed
fe
fc
ea
e4
03
00
e7
00
fa
05
1b
f3
e4
0f
1b
fa
e0
10
1c
f9
e1
10
14
00
ea
09
0d
07
e6
ff
0f
0c
f3
05
12
07
fa
00
0c
00
fe
fc
05
01
fc
fa
06
fb
00
f6
f8
ef
fd
f9
fb
e2
03
f9
ed
00
07
08
1e
fb
f7
0b
1c
f7
f7
0b
15
f9
ef
0c
11
f9
ed
05
0e
03
ed
ff
0c
09
f3
00
11
04
00
fb
12
fd
02
f9
06
fc
01
f5
02
f5
05
f6
fd
f6
01
f2
fe
fc
08
f0
e8
00
0a
09
0d
00
05
fd
10
fa
fd
f7
16
fb
02
f9
16
ff
f9
fd
11
fe
f8
f6
11
01
fd
f4
12
fd
04
f5
0d
fb
05
f8
08
ff
05
f5
fe
fa
02
f9
f9
fb
06
f5
f2
ff
0c
f0
d9
01
0d
00
04
fa
08
f2
08
fe
06
ef
0c
fd
05
f4
0e
fe
02
f7
10
00
02
f5
10
fc
06
f5
13
fa
06
fa
0d
fd
06
fb
01
fe
05
f9
f8
00
05
fb
ed
ff
04
f8
dd
07
09
f8
d4
fd
11
00
07
fa
06
f2
06
02
05
ec
07
02
02
ef
0a
04
ff
f2
0f
04
02
ee
0d
02
04
f8
0c
ff
00
fc
04
01
08
fd
fa
00
05
fd
f1
02
06
fa
e6
ff
0a
fe
d1
f9
0a
fd
d5
04
14
fd
01
0b
08
ed
05
06
01
e1
08
07
00
e3
0a
07
02
ef
07
0a
02
f1
09
0b
fb
f5
00
0c
fa
fe
fa
06
00
00
f4
05
02
ff
eb
08
ff
00
e5
01
ff
01
df
ee
07
03
e5
00
1a
fb
03
0a
0b
eb
02
07
06
e8
06
0d
01
e5
09
0c
ff
ed
07
0d
ff
f6
02
09
fb
fd
01
0b
f7
07
fb
0b
fa
02
f5
07
f8
03
ef
08
fc
02
eb
06
fa
00
e8
db
fa
03
ee
01
ff
fc
02
0a
02
f2
00
0d
0a
e8
01
0b
05
e4
02
0f
fd
ef
05
13
fc
f5
03
19
f5
04
01
12
f5
07
fd
14
f8
03
fc
12
f3
09
f8
0a
ec
03
f7
12
f0
00
f6
f8
ef
02
f5
