e6
e3
53
25
d4
f8
55
0c
f0
0a
41
03
ef
f7
3c
f5
ef
fe
1f
fb
ee
fa
17
ed
f2
f7
1c
f0
f7
f7
0c
f8
fb
f6
0d
fa
fd
f8
09
06
05
f4
04
0c
01
f6
04
0f
fa
f5
08
20
fa
ff
59
06
f9
fc
42
04
e6
09
29
ff
e3
fd
12
f6
e8
00
13
eb
ea
ff
15
f4
ed
fc
15
eb
f0
f7
10
f0
f6
f8
0c
ea
f6
f3
0e
ef
01
fd
0a
f3
fe
03
09
fb
02
01
ff
05
de
f1
3f
05
eb
fb
20
fe
e5
02
13
06
e2
0a
00
fc
e5
0d
03
f2
e4
04
08
fb
e7
fa
0e
f6
eb
f4
12
ed
ef
f2
0f
f2
f5
f3
0f
f0
fc
f6
08
f4
01
fc
03
f0
ff
fe
fd
f2
e6
d9
39
07
ef
f7
1f
06
e7
01
07
02
e3
02
f3
fe
ea
03
fc
f6
e6
fc
08
ff
e4
fa
09
fb
ea
f4
0b
f4
ed
f0
0a
fb
fb
f2
0a
f1
ff
f8
07
e5
06
fc
ff
ec
01
fc
02
f2
d6
da
2d
07
fa
ee
1b
ff
f3
04
05
08
eb
f4
04
01
eb
eb
03
00
ea
ed
07
f9
e3
ec
0a
fa
e5
f0
0a
f5
e9
ef
0a
f5
ed
f5
0a
f1
fb
f4
0d
e5
00
fc
09
e8
f2
f1
0c
ec
e1
d1
2a
fa
fe
e3
20
06
f7
e6
0f
07
f6
e8
08
03
f4
e3
0a
fb
f1
f1
0c
f9
eb
ef
09
fd
ea
ef
08
f5
e9
f5
04
f9
eb
f4
04
f2
f6
ed
0d
f0
f6
ef
0e
e7
e6
e9
1a
f8
e6
d0
37
0d
ee
df
1d
06
f4
e5
0f
04
fc
e1
0e
ff
f9
d5
0a
fa
f4
e9
11
f6
ed
eb
12
f2
f2
f3
07
f6
e7
f8
02
fc
e2
f9
06
f4
fb
ec
06
fa
fe
e7
08
02
ed
e1
05
00
0e
e8
35
08
09
f4
16
05
ff
ea
05
08
fa
e2
0e
00
f8
e2
0f
fb
f3
e3
13
f7
eb
ef
0f
fa
ed
fa
06
fc
e2
fb
03
f9
f7
f9
02
fe
07
f0
ff
13
04
eb
fc
06
e3
e4
ff
fa
0c
ec
35
10
08
e6
12
09
08
e7
0b
07
03
e7
11
fc
fc
e3
17
f9
f9
e4
15
f5
f4
f2
07
fb
f3
fa
01
ff
e8
01
fb
05
ff
f9
fe
07
fe
f3
f5
10
fc
f2
fb
15
ec
ed
fd
fe
06
fb
27
0c
12
de
16
0c
0a
e6
1f
05
09
e4
18
06
04
e6
12
fd
fd
e9
0e
f9
fd
f6
06
ff
f2
f9
fd
02
f4
fe
f4
07
04
fc
f8
14
04
fd
f7
20
fe
f3
f4
17
ea
f8
fd
01
07
ed
2c
10
02
e8
10
04
0b
ee
11
03
0a
e5
1a
03
0b
ee
11
04
05
ef
09
00
02
fb
00
05
fb
fd
fe
08
fb
01
f7
10
fb
00
f3
16
03
01
f9
19
fd
f8
f2
12
ef
fb
fc
05
09
e5
37
07
09
e6
0a
ff
01
dd
0b
01
0a
ea
15
00
09
e7
12
03
03
ef
0c
01
f9
f9
04
02
f1
00
04
05
ed
09
fd
06
fd
07
fb
08
10
00
fb
11
05
fe
03
10
02
ef
07
10
02
e1
4c
fe
f8
d8
1f
fb
fe
e8
15
fb
fe
e8
11
ff
fc
f4
14
01
f8
fd
0e
02
ed
05
0b
01
e0
09
08
03
d8
04
06
01
e0
01
06
03
f0
f6
03
0d
f7
e4
0e
0f
14
ed
1c
0b
