fd
f5
eb
fa
04
f2
ed
ff
1c
fd
e9
f3
15
f9
f2
fe
16
fa
ec
06
10
f9
fa
fa
0f
ff
01
ff
0b
01
02
04
05
04
ff
07
02
07
01
05
03
ff
04
08
04
00
04
02
05
02
05
fd
f3
e9
f3
04
0d
f3
eb
fc
10
f4
f2
f5
10
f8
f2
e9
0f
ef
f9
f3
0f
f4
fa
03
0e
ff
f1
06
0a
02
f0
ff
05
05
fa
06
01
07
f9
01
ff
04
f9
07
ff
07
ff
fe
09
07
02
ff
09
f1
ef
ff
07
f5
f9
f2
09
f5
00
ef
0b
fa
fd
eb
08
f9
fa
f3
0e
fa
f9
f8
0c
fd
f9
fd
0a
04
f9
ff
09
06
f7
01
04
07
fd
03
07
08
00
ff
03
04
05
02
0a
08
03
02
f9
e9
f1
f8
01
eb
fc
f3
fe
ff
fb
f0
03
04
f8
f4
01
05
f2
f2
05
0b
f2
f7
0b
0f
f0
f9
0f
0d
f2
fe
0d
0b
f8
ff
09
05
ff
fb
07
07
00
ff
08
01
04
03
0f
02
04
02
fc
db
f0
00
00
00
fb
f4
00
0a
f3
f4
02
10
f2
f6
ff
12
ee
f7
02
11
f1
f7
03
0f
ec
f7
07
10
f2
fa
0e
0a
f9
fd
0b
05
02
fa
0b
03
04
00
0a
00
07
01
0e
fe
06
09
f7
ec
f1
fe
00
09
fa
fa
fa
13
ef
f7
fe
14
ec
f4
ff
17
ed
f3
fe
11
ed
f1
03
10
ef
f2
04
0e
f2
fb
0c
07
f9
ff
0c
00
00
fd
0b
00
06
01
0a
fd
08
fe
09
f8
0a
07
f3
02
f8
fd
fe
10
f7
f8
fe
16
ef
f4
02
14
e6
f3
02
13
e4
f1
00
0f
e7
ef
03
11
ef
f0
02
0d
f2
fd
0c
03
f8
ff
0f
01
fa
02
10
01
fa
fc
04
fb
00
02
05
f6
07
06
fb
e8
02
fb
03
f5
05
f9
07
02
fe
f7
09
08
f6
f5
08
08
f4
f0
04
0d
f1
f1
07
11
f4
f5
00
0e
f3
f6
02
06
f6
02
09
05
f4
00
02
06
f3
fe
07
fe
f9
06
00
fa
fa
07
02
ee
f6
f5
fc
fc
04
f7
02
ff
03
f1
05
02
fa
ee
04
05
fa
ed
07
07
ff
f1
00
0a
f9
f8
fb
09
f7
f7
fe
09
f6
fc
fc
0a
f6
00
fc
05
f8
fb
f9
ff
fa
fb
f4
fd
fb
fc
fa
e5
ef
fc
fa
01
0b
f7
fd
04
fe
f1
02
05
fa
f1
05
09
fe
ef
06
08
fd
f9
05
0b
fe
fe
ff
0c
f8
fb
02
0d
f9
fa
01
0c
fa
fb
02
09
f9
f5
02
03
fb
f6
f4
01
00
fa
f7
fc
f8
f9
f8
07
08
fa
fb
08
f7
f6
fb
06
f4
f9
ff
0a
fa
fc
02
09
f6
ff
01
09
f8
03
03
0b
f9
03
02
06
fd
fd
05
02
fe
f9
ff
01
fd
f3
01
fc
ff
f7
fc
ff
02
f8
ed
01
ee
02
ee
11
fc
fe
f8
11
f3
fa
f9
10
ea
fc
fa
0a
eb
fe
fd
0b
f2
00
ff
0b
f3
02
00
06
f9
01
0a
02
fb
fd
0c
fd
02
fb
02
fc
05
fc
07
fb
00
fb
f3
f8
06
fa
02
eb
ef
ff
f7
18
f1
00
f2
1f
f4
fe
fc
1b
e8
fe
ff
16
e9
01
fd
11
ed
02
03
0a
f6
01
08
02
fa
01
0b
fd
02
fe
10
f3
06
fd
16
f5
05
ff
0a
f6
0a
fc
e6
f9
08
fd
