03
00
06
FE
FF
04
01
04
03
FD
FF
01
03
00
05
FF
FF
04
04
01
01
02
03
03
02
07
01
02
FD
08
03
01
01
08
05
01
FE
09
09
02
01
06
04
04
FF
0D
06
00
04
01
06
03
00
04
FB
03
FB
02
00
04
08
FE
05
04
05
FE
00
FB
00
F8
02
00
00
FD
FE
FC
03
FA
00
FE
FD
04
02
FD
FE
02
02
FE
FF
01
04
01
05
FE
01
01
FF
03
04
00
08
00
04
01
FC
FA
FC
03
FF
00
02
FD
02
0B
FE
01
00
FD
FF
FE
FF
F8
02
F9
03
F7
FE
FA
01
FC
FD
F7
FC
02
02
FB
FF
01
FF
FC
FC
03
FE
FA
FC
01
FF
01
FE
02
FC
01
FE
04
03
01
01
02
FF
FE
FD
00
03
FE
04
05
01
FE
04
F9
03
FD
01
01
00
F6
00
01
01
F4
06
FC
FD
F7
08
03
02
FF
02
08
FE
FE
04
07
FE
FF
02
08
FE
00
04
08
01
FF
00
F8
FF
FE
02
04
FB
FE
FB
FE
04
03
02
F9
00
FA
02
03
04
FB
04
FA
01
FA
04
FD
00
F8
08
FE
00
00
02
00
FF
FE
00
FF
FE
06
FF
06
01
02
01
00
FD
05
03
FE
FE
07
00
F9
FE
FC
00
05
FE
02
FE
FB
FB
F9
03
FB
04
FB
01
FD
FF
F8
FD
FC
FE
FD
FF
F6
01
FA
04
00
00
FE
07
01
FD
05
05
04
FC
06
01
04
FD
03
02
FC
FD
05
FE
FA
FB
00
01
FF
02
FF
FD
F7
F9
FC
00
FC
FF
FD
FE
EE
06
FD
FD
FA
00
FC
FC
E5
02
FA
F9
F4
00
FF
05
04
01
FF
05
02
FF
05
01
FE
FE
04
04
00
FE
02
FC
FE
02
00
02
F7
04
FE
02
F8
06
FF
FD
FD
EF
FC
FF
F7
FE
03
00
F7
02
FA
F8
F3
03
FE
FC
E8
03
FC
FE
F9
00
FD
02
05
00
02
00
02
FE
08
02
FE
FD
02
FE
03
FF
FF
FF
04
01
FF
02
FD
02
FF
F9
FC
01
FF
F8
FB
01
04
FB
F7
FB
03
FF
02
02
FE
FC
F8
02
03
FA
F2
05
01
FC
F8
02
FE
F9
FB
FE
02
FF
02
03
04
02
07
04
04
FE
06
FF
FF
FC
01
01
02
FC
05
02
FF
FD
02
03
00
FF
FD
FE
01
FD
04
00
FB
F8
F8
00
FF
F2
FD
02
02
F5
FF
04
03
FE
FC
05
01
FE
00
02
02
01
03
03
03
04
09
02
02
04
02
01
04
08
FE
01
FF
01
04
05
FE
FD
02
06
03
00
F9
FE
FC
03
FF
00
03
06
FE
FD
05
03
FC
02
FE
FC
03
02
FE
FD
05
00
FF
FF
00
01
04
02
00
02
05
04
03
03
04
0A
00
00
02
03
04
01
FB
01
FA
FD
FE
04
03
FF
FF
FC
FE
F5
01
FF
F9
F7
FC
00
F5
F8
02
FE
FE
FD
02
F7
FF
FD
FA
FF
FF
02
02
FE
00
FD
FC
04
FE
01
00
01
02
FE
FC
FC
07
00
FF
02
08
FC
FD
FC
EE
FC
FF
03
00
00
FC
01
FF
00
04
00
FF
F8
FE
FB
F9
F5
FF
03
F5
F9
FE
FE
F1
FC
FF
02
01
00
FD
FD
FE
02
FE
01
05
02
FF
FF
FC
00
02
02
F9
00
FE
FE
FB
02
04
00
01
02
FE
00
FE
03
02
