06
01
FA
09
08
FF
02
04
FE
02
FA
03
03
01
FF
FB
00
02
FF
FC
FB
FA
FB
FD
FB
FD
FD
FB
FF
FE
FA
07
01
F9
D6
FE
02
F9
F0
FA
FD
FD
FE
00
05
FA
FD
FE
06
F9
FC
07
01
FB
F4
08
04
02
FD
00
FF
FA
F9
04
08
F5
00
03
03
FE
FA
03
FF
FB
FF
03
FF
F8
FF
01
04
FC
FA
02
02
FC
FE
01
04
F2
05
FA
FE
FC
00
FB
00
FA
01
FA
FC
F2
EF
FC
01
00
FB
02
00
01
FB
04
00
03
FE
04
01
01
03
04
01
02
FC
02
01
03
01
03
01
07
FC
03
01
02
FC
03
01
FA
FD
01
02
08
FD
01
02
FB
FE
00
02
FD
FE
01
FD
F7
F7
FE
FE
00
04
00
02
F6
FE
03
FE
FE
00
07
01
FE
FF
08
03
04
02
06
FF
02
00
05
00
02
00
02
05
FD
FE
02
03
FE
FE
03
00
FE
FD
00
00
00
00
01
FF
FD
FE
01
03
02
F8
FC
FE
03
05
08
FF
FF
FF
03
FD
FE
03
08
00
04
00
08
02
08
FB
06
FF
FE
02
00
01
02
FF
02
02
00
05
00
05
FB
02
01
09
FE
00
01
08
F9
FD
FE
FD
01
FD
FD
F9
00
02
FB
04
FD
03
06
01
04
03
04
01
03
00
05
00
05
00
FF
01
07
FE
FF
02
04
FD
FC
FF
00
02
F8
01
FF
02
FD
01
FE
04
00
01
00
02
01
FC
FD
01
FF
01
04
FF
FB
FE
02
FA
FE
02
FE
03
03
00
0A
02
01
04
03
01
01
06
06
02
FD
0C
06
02
FE
06
02
FA
FC
01
F7
FA
FA
02
03
03
FB
01
00
FF
FF
01
02
FF
03
03
03
00
00
01
00
FC
01
FE
09
02
FC
FC
0D
02
09
00
04
02
FA
FF
04
00
F9
0A
04
FE
FB
0D
08
FE
FC
07
FB
F8
FC
06
F4
FB
FF
01
FC
FF
FF
02
01
03
02
02
FE
01
01
09
06
03
01
04
FE
02
00
FF
FA
FE
FF
01
FB
FB
0B
FD
05
00
FC
02
06
FE
FC
04
05
FF
FE
05
03
FE
00
03
FD
FB
FD
03
FD
FF
FC
03
FA
FF
F9
04
02
02
FF
0B
05
FF
01
03
FF
02
FF
FF
FF
01
00
00
FE
FD
04
FE
05
FE
04
F9
0A
FE
FC
FD
05
00
FD
FD
03
00
FF
FE
02
FF
FE
02
FA
00
FC
02
F9
02
FF
03
F8
02
FC
00
FC
02
FD
03
FF
01
FF
FA
FC
FE
FE
00
FD
F9
FB
03
02
02
FF
FB
FB
FD
03
05
FA
02
FA
05
04
02
F9
03
FE
01
F6
01
FD
FF
F8
07
F9
01
F6
03
F7
01
FD
F9
F9
FF
00
03
FD
FE
FF
01
FB
01
FF
FC
03
FB
FA
FF
05
FD
02
07
09
FC
01
08
01
FC
07
00
FE
04
00
00
06
02
FC
00
FE
00
FA
FF
F9
FD
F6
F9
FB
FF
FC
FB
FC
FE
02
FF
FA
01
FF
F5
F6
FF
FF
FD
F6
FF
FF
00
03
FB
02
00
FF
FD
F7
03
03
02
05
00
04
07
08
F6
09
05
06
00
08
03
00
05
02
03
06
03
FE
02
03
08
01
03
FF
FF
01
04
03
FB
03
04
02
01
FE
02
03
FC
FC
03
03
FF
FA
00
00
06
FF
01
03
05
FD
FA
03
