07
FF
FD
00
FF
FE
05
00
F7
FF
FA
F9
01
00
0B
00
F9
0A
F9
FB
FE
FF
FF
03
00
FE
01
01
03
FB
00
FF
FC
FF
FB
01
FB
FC
F9
00
FD
F7
00
02
06
FA
FD
FC
01
02
FB
FE
FD
03
FD
05
FB
07
03
01
FB
0A
FF
FA
05
07
F7
03
FA
02
FE
00
02
FE
00
01
02
FF
FF
00
03
02
01
FF
02
02
FB
02
05
01
00
01
FF
01
FF
FE
04
03
04
FF
FC
03
FD
FD
FF
FF
00
FF
FF
FF
FD
FF
FD
FE
FB
FC
FE
F7
FF
00
02
F7
02
02
FF
F9
01
FE
01
02
FD
00
02
FD
00
04
01
F5
FF
01
FE
FF
FE
FF
02
FE
02
FF
FE
01
04
02
FF
FE
FF
01
FF
08
0D
04
00
07
04
02
00
FF
01
FE
00
00
FC
FF
FF
FD
01
02
FC
00
FF
FC
00
03
00
01
FD
00
03
01
FB
02
02
07
F8
FA
03
03
FA
00
01
03
00
FF
FF
04
FF
06
FC
FB
01
06
03
07
05
FC
01
FA
02
0A
03
FC
FF
FC
02
FF
04
FF
04
00
02
FE
02
FE
F9
FD
01
FD
F9
00
02
FF
F9
FC
01
03
FA
FA
03
04
FB
FC
FE
03
01
FC
00
00
FF
FD
FC
01
FF
08
02
08
03
FB
FF
03
00
00
04
F7
06
00
01
FF
06
02
00
FF
00
FF
02
F9
01
01
01
FC
F9
01
FF
FA
FD
FB
FD
FE
FD
00
04
00
01
02
05
FD
FD
FD
01
01
01
F9
FB
FF
FA
05
01
03
03
FE
02
FA
FF
F3
04
F9
00
FB
FE
FD
01
FE
02
FD
FC
F7
02
FD
FD
FB
FC
FB
01
06
F9
FB
FE
FC
00
FE
FA
00
FF
FE
FC
FF
04
FD
FA
FD
05
FB
FC
FA
00
02
FC
EF
F8
00
00
03
02
FF
FC
FC
03
FB
FB
F6
05
FE
FF
F7
01
FD
FE
F7
00
01
00
FC
F9
01
04
F9
FA
FF
03
FC
02
FF
03
FB
01
FB
F5
FF
04
FB
F6
FE
05
00
FD
F5
05
FC
FF
05
00
05
FC
04
00
FD
F8
FD
03
00
F7
F3
01
00
FB
F6
04
02
FD
FF
01
00
00
FE
F8
00
03
08
FF
FC
07
04
01
05
05
00
FF
F9
FE
05
FF
FA
FB
01
04
F9
FE
FE
FD
03
03
FF
00
04
FD
FB
04
FC
F7
FC
FE
FB
F6
FE
07
01
FA
00
03
02
00
FD
01
03
00
07
00
00
03
05
01
05
04
01
FF
00
08
03
00
FE
03
01
04
FB
F8
02
00
FB
04
01
FB
FF
FC
FD
FE
FE
F3
FE
FF
FF
F9
FF
05
FC
F4
FD
FE
05
F8
00
02
01
00
00
03
04
FE
00
02
06
08
01
03
02
05
01
00
01
03
FC
FE
FD
FD
FD
05
FD
03
FF
FE
00
08
06
FF
05
00
F4
FC
FA
FA
F9
00
01
FC
01
00
00
FC
02
04
04
F8
FF
01
05
FD
02
00
03
03
FE
00
07
03
02
00
04
02
01
FF
02
03
00
FD
03
00
02
02
FE
FC
F4
FD
02
03
FA
07
FB
06
F9
FD
05
05
FE
00
02
FE
FE
03
00
FC
F9
FE
01
FF
FA
00
03
FF
01
FF
FB
01
FB
FF
FD
FC
F3
00
02
FD
F4
00
F8
03
EE
FD
02
03
FD
FC
00
06
FD
FA
01
06
F9
FE
FE
