EC
06
FD
EF
ED
00
FC
F6
F3
FB
F6
F7
FD
07
06
F8
00
F9
F7
01
01
FC
F5
FA
05
FA
F8
00
01
FF
F5
FC
02
F5
01
00
FD
FB
00
FE
01
04
FD
FE
FF
03
FC
01
FA
FC
FB
FB
F4
FC
00
F1
FA
FA
FC
F2
00
07
07
00
FE
F3
00
FD
FF
0A
FD
01
00
0C
FC
01
01
05
FC
FF
00
04
01
FD
00
07
FE
FF
02
03
FC
00
FE
03
FD
01
FF
03
01
FA
FD
FF
03
04
FB
04
03
F3
FC
02
FA
02
02
FF
FE
FE
02
FE
FF
FC
00
FF
FE
FE
01
03
00
FE
04
02
00
FF
FF
01
04
00
03
FE
01
00
01
03
FD
02
01
01
02
01
FF
02
02
02
02
05
03
FD
03
F1
00
ED
00
04
05
FD
04
F9
04
FC
02
FF
04
FE
02
00
04
00
FD
00
03
02
FC
00
01
01
FC
03
02
04
FE
04
FF
01
FE
02
01
02
01
03
FF
02
01
01
02
01
FA
01
02
06
FD
F7
04
EE
00
FF
FE
00
FD
F8
04
00
00
FC
04
04
FE
FE
01
03
F8
FA
03
06
FE
01
01
07
FD
FE
03
03
02
02
02
FE
01
07
00
00
FE
02
FF
02
FB
03
00
02
02
FB
02
00
FC
FB
FE
F2
02
FB
05
FB
FB
FC
05
04
FA
FE
02
04
FB
FB
FF
03
FA
FE
00
05
F9
FD
02
02
01
01
02
FF
07
02
01
FF
05
07
02
00
FC
02
03
00
04
FD
04
FF
FB
FC
00
FD
FF
F7
02
F7
02
FA
01
F9
FE
00
FE
03
00
FE
FE
02
01
FC
00
03
FA
FF
00
03
F9
00
FE
FE
04
06
01
FB
00
04
01
00
FF
03
00
01
FC
03
05
02
FF
04
03
01
02
FB
09
01
FF
02
FE
FB
05
FA
FF
FD
03
FF
FE
F7
03
02
00
00
03
FD
FE
F8
FC
FD
01
00
FC
FD
05
FD
FC
02
FF
02
FA
02
01
05
FD
01
FC
02
00
00
FF
03
02
FC
02
05
FF
F4
FF
FF
00
FF
00
F8
02
FC
FE
FB
06
00
FF
F7
06
FA
01
F9
05
FE
02
FA
00
FD
03
FA
FC
FF
FF
FF
FF
07
FF
02
FC
01
FF
07
FF
F5
00
02
F8
F7
FC
02
FD
FD
FF
FF
01
FD
06
F9
01
FD
FF
02
FF
FA
FE
F7
FF
FE
01
F7
FC
F9
02
01
FB
F9
05
00
FE
00
00
00
00
01
00
00
FF
FF
01
01
02
01
00
00
FF
FA
FF
FF
02
00
00
FB
02
01
08
FE
FA
04
FA
00
FF
FC
FE
F4
FE
02
02
F5
F8
FC
05
FD
F8
FF
00
03
F7
02
FE
04
FE
00
02
05
FD
03
01
04
02
03
00
00
00
00
FF
00
05
FD
03
01
F9
FF
02
FA
01
F3
00
01
F4
F9
FF
F9
F3
FA
FD
F3
F6
05
FF
FD
F6
02
02
00
F7
FE
01
06
F8
02
FF
06
FC
FF
01
02
00
06
FF
FE
FD
00
03
02
FE
FF
00
FF
FD
06
FF
FB
F9
01
03
FA
F6
03
06
00
F6
FA
F8
F5
F2
FD
F3
EF
FD
F6
FC
F6
F9
F8
FF
FA
F6
FD
00
04
F9
00
00
FB
F9
03
00
FE
F6
01
01
FB
F0
04
00
01
F8
00
00
FE
F5
FF
03
FE
F2
FD
05
FB
F9
F9
FF
F6
F3
FD
FB
F1
