08
04
FB
08
00
01
FE
02
00
03
00
02
FA
FA
F0
FC
01
FB
FE
01
00
FD
FE
03
00
FA
04
FF
02
00
FD
01
FF
F3
FD
FD
00
F6
FC
04
05
FA
FE
FF
01
F8
05
FC
FE
02
FA
FE
0C
F7
FB
09
00
F9
FC
04
03
FF
04
03
00
02
04
02
00
FE
FD
03
03
FD
01
03
02
F9
06
01
03
F6
07
FD
01
05
00
FF
00
FD
04
00
04
07
00
01
FD
01
04
FF
FE
FE
00
02
01
E9
FE
0B
06
F6
04
02
01
FD
FF
05
FD
FF
00
04
00
FF
01
03
01
FD
FF
03
FF
F5
FF
FF
05
FE
01
01
06
FD
FE
FC
00
08
FD
FE
FE
04
02
00
00
06
07
01
00
FF
FC
02
04
04
F6
02
02
F5
01
05
FF
F2
00
05
FC
FB
FF
04
04
FA
03
05
01
FD
FF
FF
FD
F8
FE
FC
03
F5
02
FF
07
F7
04
00
0B
FF
00
FA
05
FF
02
FF
02
01
FE
FB
04
00
FF
FE
05
FA
01
02
06
F3
FD
02
00
F8
01
01
00
F1
02
01
04
F5
01
03
06
FC
00
FF
02
FB
FC
FA
03
F7
FE
FE
06
F1
03
FB
05
F8
02
00
00
FD
FD
00
01
FD
02
FF
02
FB
FD
FC
00
FE
05
04
03
07
FD
FD
02
F1
00
00
FF
F7
03
FF
02
00
03
FD
FF
FD
05
FF
FD
F9
FE
05
FE
EE
01
00
02
F6
02
01
03
02
FD
FF
02
FC
00
02
04
00
01
FD
F9
FA
FD
FF
05
FE
04
09
FE
F2
03
FF
02
F9
02
F9
01
00
02
FE
FF
01
04
02
FF
01
03
01
FA
01
FF
06
FF
F5
02
01
01
03
FF
FD
00
04
01
01
06
05
FE
00
01
01
FE
FF
01
02
F7
FF
FE
02
FF
FE
FE
01
04
FC
FE
01
02
FB
FB
02
02
FC
FF
02
03
02
FF
03
03
02
04
05
FD
06
00
FF
04
FF
FC
02
04
FF
04
06
FF
FE
04
03
FE
02
FD
FF
FE
01
02
02
FB
FE
04
F7
00
F7
01
01
02
06
00
05
FE
FD
FD
03
FF
00
FE
00
00
FD
00
03
03
01
05
FF
03
02
01
01
02
01
03
02
05
01
FE
07
00
FE
03
01
FD
FF
02
04
01
04
FF
07
FD
FF
FB
F9
FF
06
00
FF
FE
FD
00
00
00
02
01
05
01
FD
FC
01
FF
FF
00
FD
00
FA
FD
00
00
FA
FD
FC
00
FB
FB
FC
02
02
FE
09
FF
01
FB
FE
01
01
01
FD
FE
01
02
FE
F9
FE
05
04
01
02
FD
FC
FC
00
FE
FF
01
02
03
01
01
FF
06
FC
FE
FD
03
FF
FC
FF
FC
F7
01
FD
FF
FB
01
01
FD
FF
FD
02
FD
05
01
03
06
03
FC
FE
01
0A
FD
01
FA
00
F9
FE
09
FA
FE
08
04
F4
02
07
01
F6
FE
06
01
FE
FD
FC
00
FE
FC
FB
01
FB
00
FE
FB
00
FC
02
FC
FE
FF
00
FB
00
FD
01
FF
02
02
01
04
03
03
01
09
FF
02
04
FF
FC
02
FF
07
FA
00
03
06
04
FB
03
02
FC
02
08
02
FE
FF
00
00
FF
FE
07
02
02
FD
09
FF
FD
03
01
00
03
00
FF
00
FE
02
04
00
00
00
FC
FF
00
02
FC
04
FD
00
03
06
FB
02
04
