F6
06
F6
F9
FB
03
FC
FC
00
01
F8
F7
FD
04
02
FD
01
F9
02
02
FD
FD
FD
FD
FB
FA
F7
00
F8
F5
FF
01
02
F7
01
FC
FA
FD
FB
02
FF
00
F8
FB
FE
F9
FD
FB
FA
01
FD
FB
FD
00
EE
F6
F9
FC
F8
01
F8
FD
F9
FE
F8
F5
FD
FC
03
F8
FE
01
FF
FE
F8
01
FF
01
F9
01
FF
FB
F9
FF
FF
F9
FB
02
01
FB
FC
04
FF
FE
05
03
FA
FA
FF
F8
00
FE
FA
01
FD
05
FA
F4
F9
00
FF
FE
00
FD
00
FF
FD
F9
00
FC
FE
FF
00
FE
03
08
FF
FF
01
01
FE
00
00
02
00
03
02
00
FD
03
FD
FD
F9
01
FF
F9
01
02
FD
F5
FB
01
00
FB
FC
03
FF
F8
FE
F6
0A
FA
FE
F9
03
03
02
FC
05
02
02
FB
04
01
02
FC
04
04
03
FF
FF
03
01
01
01
04
04
06
FA
03
01
03
FC
FF
FD
01
FD
03
FD
00
FE
FB
00
00
00
03
FA
FF
FA
F4
FF
F4
06
02
01
FD
02
FF
01
FF
02
FD
05
FA
05
FB
02
00
02
FD
03
01
FD
03
02
04
FD
01
00
02
FE
01
FF
00
FD
00
01
04
FE
00
00
03
FA
FF
FC
00
FD
F3
FF
F9
FF
FE
FB
01
01
F1
04
05
00
FD
06
FF
FF
F9
02
FE
FB
FE
00
01
FE
03
03
03
00
04
03
00
FF
00
01
01
02
01
00
01
FB
FF
FE
02
FA
FA
02
FF
03
01
00
FC
02
02
01
F7
F7
FF
05
F8
FA
00
05
FC
FF
F8
04
00
FB
FA
02
02
FB
00
02
05
FF
04
FF
00
FE
07
04
01
FC
02
FF
FE
00
FC
FF
FB
03
FD
00
FE
02
FC
03
FC
00
01
02
FE
FC
FE
F9
FB
FB
FC
FD
FE
FE
04
03
F9
F7
F8
03
05
F1
FB
FF
03
FF
FF
03
07
FE
04
FF
03
FD
05
02
02
FC
02
02
FC
03
FE
02
FE
FC
FB
01
FC
02
00
01
FC
02
F7
FE
FB
FF
FE
FB
F9
02
02
FD
FD
FD
FD
FF
F8
FE
FB
FE
02
FB
02
FF
09
FE
02
02
06
FD
06
01
03
FF
02
01
00
FD
FE
02
FB
02
FA
04
FB
FD
FD
FE
FB
00
FF
FE
FE
03
F7
FE
03
FC
FD
01
FE
FB
00
FC
F3
00
F9
FA
FD
FE
00
FF
FF
06
FF
02
0B
FE
03
00
01
02
08
FD
02
02
01
01
FF
FB
FC
00
FF
FA
F8
FF
FE
00
01
01
01
00
FF
01
FD
F9
FF
FD
01
03
05
01
01
01
ED
F7
FC
01
00
02
F8
05
05
FD
FB
02
04
FC
00
08
04
FF
FE
08
00
FF
00
01
FA
FE
02
00
FB
FE
00
FA
01
FF
03
FD
FB
03
FF
01
F8
FD
FF
FF
03
03
04
FD
FA
06
00
F7
FC
FE
00
09
FF
FD
FC
02
07
FD
FB
01
FF
FE
FE
04
FA
00
FF
01
FF
FC
FC
FC
FB
FC
FD
FD
FE
FE
05
FC
FE
FB
01
FA
00
00
00
FF
01
00
FD
FE
03
01
00
02
00
FD
FE
F7
FB
F8
F7
05
FF
03
FB
05
04
FF
02
06
01
03
FD
01
FE
00
FC
01
04
00
03
FC
FD
03
01
01
03
FF
02
F8
FE
02
07
05
00
04
FF
08
00
03
00
FD
01
FC
FF
FE
07
03
FC
