04
FE
06
01
02
03
02
05
FA
00
FF
04
00
FD
02
02
FD
FD
FB
01
FA
FC
F2
01
00
FE
FD
03
04
FF
05
00
01
06
08
FE
07
03
02
00
00
03
FF
FF
FE
FF
FC
FF
04
FA
FC
FF
02
FF
01
FA
FF
FE
07
FE
00
07
F7
01
02
F3
FB
FA
00
FE
00
00
FF
FF
03
00
02
01
FE
FD
02
06
03
FD
02
02
04
01
02
07
04
00
FE
01
03
FF
00
04
FE
FF
04
04
07
04
FE
03
01
00
00
05
F9
00
FE
F1
FE
FF
FF
F7
00
01
00
FB
01
FF
FF
FE
FF
00
05
01
FC
02
04
FF
02
FF
05
02
00
00
06
04
FF
02
05
0A
02
01
04
04
03
03
06
01
00
03
FC
00
00
02
FD
F9
FC
FD
00
FE
01
FD
FE
F5
00
FF
FE
FA
02
02
FD
FD
01
01
FF
00
FF
FF
03
05
FD
02
07
07
FE
01
04
05
01
07
04
0C
FC
01
04
01
03
04
02
00
07
06
FB
F7
FE
FF
FE
F7
FF
00
FE
F5
02
00
FC
F3
00
03
FF
FB
FF
02
FB
FF
01
03
FB
00
FE
03
FA
00
FE
05
FF
05
FA
04
01
03
FC
07
05
03
FE
03
04
06
FD
02
06
04
02
05
FD
ED
F7
07
FA
01
06
00
FE
F1
03
FD
FE
FE
00
03
FB
02
FE
01
FE
00
03
00
FD
02
01
06
FF
03
FD
04
01
FF
FC
05
FE
FE
FC
09
03
FC
FE
05
FF
06
01
04
03
09
FE
09
FD
FF
FA
04
FA
FE
FE
04
FC
00
FF
07
FD
06
01
0A
F8
02
01
01
FF
04
FF
FE
FE
01
FD
01
03
03
FE
04
01
FD
F7
03
02
FA
F9
05
01
F3
FB
05
02
F8
FD
02
09
FC
FF
00
FE
FB
FE
FC
01
03
01
04
03
01
00
0A
00
05
FE
05
F8
01
03
04
F5
00
02
04
01
00
FE
04
FD
FB
FD
03
01
F8
FB
04
02
F6
FD
01
05
FB
FC
02
00
FE
FF
02
FC
FD
FE
01
02
F6
F7
04
07
05
FD
04
05
02
FF
04
06
03
FD
08
02
05
00
04
FF
01
02
04
00
01
FE
01
FF
FC
FD
00
FF
01
FE
04
02
FA
FE
01
FC
05
FB
01
02
01
03
01
04
F8
04
04
FE
06
00
01
03
FE
02
00
06
04
00
05
07
01
FE
05
02
04
FE
00
02
02
FE
02
01
03
FF
01
FF
01
02
00
00
FD
00
00
00
FB
FF
00
FF
F8
04
FD
FD
FC
03
FC
02
F7
02
06
04
0B
FE
00
FF
F9
FE
00
09
03
03
00
05
FF
03
02
07
01
00
02
08
00
FE
00
04
02
01
01
04
02
FF
FF
04
FE
03
02
01
FC
04
FD
FD
01
01
F9
F4
00
05
01
F8
03
04
01
00
FB
03
08
01
04
FF
07
08
FE
FF
FD
05
01
01
01
02
01
FF
02
08
FD
04
01
06
02
01
04
08
02
01
FD
05
FD
FF
01
06
00
02
F9
F9
FD
05
FE
FD
00
01
00
06
03
06
02
07
04
01
01
FF
F8
FD
FF
FE
FA
00
04
00
FD
00
FA
08
FD
FF
01
F6
03
01
FE
0C
02
04
00
00
02
02
01
07
00
01
FE
0B
03
01
05
01
09
FE
F5
FC
07
02
00
03
01
F6
08
